[PAD]
[UNK]
[CLS]
[SEP]
[MASK]
!
"
#
$
%
&
'
(
)
*
+
,
-
.
/
0
1
2
3
4
5
6
7
8
9
:
;
<
=
>
?
@
[
\
]
^
_
`
a
b
c
d
e
f
g
h
i
j
k
l
m
n
o
p
q
r
s
t
u
v
w
x
y
z
{
|
}
~
¡
¢
£
¥
¦
§
¨
©
ª
«
¬
®
¯
°
±
²
³
´
µ
·
¹
º
»
¼
½
¾
×
ß
æ
ð
÷
ø
þ
đ
ħ
ı
ł
ŋ
œ
ƒ
ǝ
ɐ
ɑ
ɒ
ɔ
ə
ɛ
ɡ
ɣ
ɨ
ɪ
ɬ
ɲ
ɵ
ɾ
ʁ
ʃ
ʉ
ʊ
ʋ
ʒ
ʔ
ʕ
ʰ
ʲ
ʷ
ʹ
ʻ
ʼ
ʾ
ʿ
ˈ
ˌ
ː
˓
˚
˛
˝
α
β
γ
δ
ε
ζ
η
θ
ι
κ
λ
μ
ν
ξ
ο
π
ρ
ς
σ
τ
υ
φ
χ
ψ
ω
ϑ
ϕ
ϵ
а
б
в
г
д
е
ж
з
и
к
л
м
н
о
п
р
с
т
у
ф
х
ц
ч
ш
щ
ъ
ы
ь
э
ю
я
є
і
ј
ћ
ѳ
ғ
қ
ү
ҳ
ҷ
ә
ө
ա
բ
գ
դ
ե
զ
է
ը
թ
ժ
ի
լ
խ
ծ
կ
հ
ձ
ղ
ճ
մ
յ
ն
շ
ո
չ
պ
ջ
ռ
ս
վ
տ
ր
ց
ւ
փ
ք
օ
ֆ
և
א
ב
ג
ד
ה
ו
ז
ח
ט
י
ך
כ
ל
ם
מ
ן
נ
ס
ע
ף
פ
ץ
צ
ק
ר
ש
ת
ײ
׳
،
؛
؟
ء
ا
ب
ة
ت
ث
ج
ح
خ
د
ذ
ر
ز
س
ش
ص
ض
ط
ظ
ع
غ
ؽ
ـ
ف
ق
ك
ل
م
ن
ه
و
ى
ي
٠
١
٢
٣
٤
٥
٦
٧
٨
٩
٪
٫
٬
٭
ٱ
ٲ
ٴ
ٶ
ٸ
ٹ
ټ
پ
ٿ
ځ
څ
چ
ڈ
ڑ
ړ
ڕ
ږ
ژ
ښ
ڤ
ک
ګ
ڭ
گ
ڵ
ں
ھ
ہ
ۆ
ۇ
ۊ
ی
ێ
ۏ
ے
۔
ە
۰
۱
۲
۳
۴
۵
۶
۷
۸
۹
ܐ
ܒ
ܕ
ܘ
ܝ
ܟ
ܠ
ܡ
ܢ
ܣ
ܥ
ܩ
ܪ
ܫ
ܬ
ݔ
ނ
އ
މ
अ
आ
ई
क
ख
ग
च
ज
ट
ड
ण
त
थ
द
ध
न
प
ब
भ
म
य
र
ल
ळ
व
श
ष
स
ह
ा
ि
ी
ो
জ
ত
দ
ন
প
ব
ম
র
ল
হ
া
ি
ী
ে
ਗ
ਜ
ਦ
ਨ
ਬ
ਰ
ਸ
ਹ
ਾ
ਿ
ર
ા
த
ம
ர
ா
ி
ర
ు
ನ
ಮ
ರ
ವ
ಾ
ು
ാ
ก
ค
ง
จ
ช
ด
ต
ท
ธ
น
บ
พ
ฟ
ม
ย
ร
ล
ว
ส
ห
อ
ะ
า
เ
โ
་
ာ
ေ
း
ა
ბ
გ
დ
ე
ვ
ზ
თ
ი
კ
ლ
მ
ნ
ო
რ
ს
ტ
უ
ფ
შ
ხ
ᄀ
ᄂ
ᄃ
ᄅ
ᄆ
ᄇ
ᄉ
ᄊ
ᄋ
ᄌ
ᄎ
ᄏ
ᄐ
ᄑ
ᄒ
ᅡ
ᅢ
ᅣ
ᅥ
ᅦ
ᅧ
ᅨ
ᅩ
ᅪ
ᅬ
ᅭ
ᅮ
ᅯ
ᅱ
ᅲ
ᅳ
ᅴ
ᅵ
ᆨ
ᆫ
ᆯ
ᆷ
ᆸ
ᆺ
ᆼ
አ
የ
រ
ា
ᴧ
ᵛ
‐
‑
–
—
‖
‘
’
‚
“
”
„
†
‡
•
…
′
″
‹
›
※
⁄
₂
€
℃
ℓ
™
←
↑
→
↓
↔
↝
⇒
∂
∅
∆
∇
∈
∑
−
∗
∘
√
∞
∥
∧
∨
∩
∪
∴
≈
≡
≤
≥
⊆
⊕
⎯
█
■
□
▪
●
◽
☆
☰
☱
☲
☳
☴
☵
☶
☷
♠
♣
♥
♦
♭
♯
✔
⟨
⟩
ⴰ
、
。
《
》
〖
〗
い
う
お
か
き
さ
し
す
た
ち
な
に
の
は
ま
も
り
る
ん
ア
ィ
イ
ウ
エ
ォ
カ
キ
ク
ケ
コ
サ
シ
ス
セ
タ
チ
ッ
テ
ト
ナ
ニ
ハ
ヒ
フ
ヘ
ホ
マ
ミ
ム
ュ
ラ
リ
ル
レ
ロ
ン
・
ー
一
丁
三
上
不
世
中
丹
乾
五
京
亭
亳
人
今
代
伊
会
信
元
光
兌
八
公
利
動
北
南
原
古
司
合
吉
名
君
周
和
唐
国
國
地
场
坎
坤
城
士
多
大
天
太
奈
奥
女
子
字
学
安
宗
家
小
少
尼
居
山
峰
島
川
州
工
巽
市
师
帝
平
庚
康
式
後
德
忠
成
戸
手
文
新
日
明
春
會
月
有
朝
木
本
朱
机
李
村
東
松
林
株
根
横
橋
正
武
氏
民
気
水
江
汽
沢
法
浜
海
港
漢
澤
火
無
物
王
田
甲
町
白
的
皇
県
石
社
祖
神
福
科
空
立
竹
第
線
義
自
船
艮
花
行
西
記
語
車
通
道
郎
部
都
里
野
金
長
門
陽
離
雷
震
音
風
香
馬
駅
高
麻
黄
ﭘ
ﭼ
ﮏ
ﮐ
ﮑ
ﮓ
ﮔ
ﮕ
ﮬ
ﯼ
ﯽ
ﯾ
ﯿ
﴾
﴿
ﷲ
ﺀ
ﺁ
ﺍ
ﺎ
ﺐ
ﺑ
ﺒ
ﺖ
ﺗ
ﺘ
ﺟ
ﺠ
ﺣ
ﺤ
ﺧ
ﺨ
ﺩ
ﺪ
ﺭ
ﺮ
ﺯ
ﺰ
ﺲ
ﺳ
ﺴ
ﺶ
ﺷ
ﺸ
ﺻ
ﺼ
ﻃ
ﻋ
ﻌ
ﻐ
ﻓ
ﻔ
ﻗ
ﻘ
ﻞ
ﻟ
ﻠ
ﻢ
ﻣ
ﻤ
ﻥ
ﻦ
ﻧ
ﻨ
ﻩ
ﻪ
ﻫ
ﻬ
ﻭ
ﻮ
ﻳ
ﻴ
ﻼ
（
）
，
－
：
￼
𐎠
𐎡
𐎢
𐎫
𐎶
𐎹
𐎺
𐎼
𐏃
𐏐
𐬀
𐬁
𐬆
𐬈
𐬉
𐬌
𐬎
𐬐
𐬙
𐬚
𐬛
𐬢
𐬥
𐬨
𐬭
𐬯
𐬰
𐬱
𐬵
🔸
🔹
##س
##ت
##ر
##ی
##ک
##ل
##ا
##ن
##د
##م
##ي
##و
##۸
##۰
##۶
##۵
##۱
##۴
##۷
##ب
##گ
##پ
##ه
##۹
##ش
##ز
##q
##3
##2
##۳
##ژ
##چ
##ج
##e
##i
##k
##f
##l
##n
##g
##o
##r
##a
##ـ
##w
##s
##ذ
##ع
##v
##ف
##m
##t
##p
##d
##۲
##y
##u
##c
##خ
##غ
##h
##j
##b
##ص
##ح
##ط
##ق
##4
##z
##ث
##0
##7
##α
##ν
##ι
##x
##ə
##5
##9
##ε
##ρ
##ω
##ء
##1
##ە
##ۏ
##°
##8
##ڈ
##ى
##ᅯ
##ᆯ
##×
##ο
##ς
##٠
##е
##р
##к
##о
##в
##ь
##6
##ة
##ﻗ
##ﺖ
##٦
##ض
##מ
##י
##ר
##ה
##ł
##β
##λ
##ր
##ե
##ն
##ի
##τ
##σ
##ظ
##а
##д
##ﺮ
##ﺑ
##ﻴ
##ﻮ
##ﺍ
##δ
##²
##ı
##и
##ч
##ᅥ
##ᆼ
##ᄋ
##ᅲ
##ᆫ
##ᄒ
##ᅩ
##ۆ
##ك
##¬
##ᄃ
##ᄀ
##ᄉ
##ᅳ
##פ
##ת
##ו
##ח
##٣
##զ
##յ
##գ
##ո
##ւ
##տ
##с
##л
##н
##١
##ц
##վ
##ա
##ս
##ҷ
##т
##٨
##∂
##ⴰ
##ڕ
##ײ
##ט
##ۊ
##ŋ
##γ
##∪
##ᅢ
##з
##κ
##υ
##ज
##द
##र
##м
##г
##ձ
##թ
##ण
##ा
##य
##ؽ
##♥
##я
##շ
##ﻭ
##ל
##כ
##ש
##ג
##ф
##б
##μ
##η
##٩
##ˈ
##√
##−
##ᅵ
##ᅴ
##∈
##ם
##™
##ן
##ռ
##→
##ᄌ
##ᅡ
##ᅪ
##մ
##ᅱ
##ܡ
##ܝ
##ܕ
##œ
##ø
##ɪ
##у
##ш
##ʊ
##ɛ
##º
##𐏃
##𐎫
##𐎡
##𐎹
##₂
##ि
##स
##न
##բ
##リ
##ー
##チ
##ス
##キ
##ᆨ
##א
##ղ
##ッ
##シ
##ュ
##ヘ
##イ
##ヒ
##ы
##ɑ
##ק
##ﺎ
##ﺟ
##ю
##ल
##ᄊ
##ٹ
##ᅬ
##ᅨ
##צ
##ד
##נ
##х
##ე
##ვ
##რ
##ნ
##ი
##æ
##ע
##դ
##٧
##ﻤ
##ﯽ
##ﺧ
##ﻫ
##ﺪ
##п
##ख
##त
##ᄂ
##𐎢
##♠
##±
##ﷲ
##क
##प
##ા
##≥
##і
##ð
##ջ
##ڤ
##ǝ
##ʃ
##ɾ
##ʼ
##≡
##ʹ
##φ
##マ
##タ
##の
##ܘ
##ᅮ
##٥
##´
##ֆ
##ब
##¨
##ʁ
##ɔ
##い
##し
##˚
##ք
##®
##χ
##÷
##θ
##ێ
##ٴ
##˓
##ב
##ᅧ
##լ
##व
##խ
##ई
##ס
##٢
##ß
##ъ
##ﻬ
##ﺳ
##ह
##ी
##ψ
##կ
##պ
##ɣ
##র
##ব
##ष
##≤
##श
##ں
##テ
##レ
##ճ
##ہ
##म
##ɡ
##ﻌ
##ﺒ
##ᄅ
##ᅣ
##٤
##ց
##ん
##ʾ
##¢
##ٱ
##ᆷ
##չ
##ը
##π
##ʰ
##ﻟ
##ﺐ
##ᄆ
##ж
##ﻓ
##ګ
##ა
##ﻨ
##ﺩ
##ர
##ﯿ
##∆
##ﺤ
##ﻣ
##ﻠ
##ﻘ
##ﻞ
##ʷ
##щ
##€
##ɐ
##ﻧ
##ނ
##ᄇ
##ર
##ﺘ
##µ
##ܫ
##ܒ
##ܪ
##រ
##ﺠ
##ﯼ
##ਿ
##ਹ
##ਾ
##ਰ
##ਜ
##ร
##ย
##า
##ﺸ
##ﮕ
##ך
##ښ
##ζ
##უ
##ლ
##￼
##ﻔ
##ﻦ
##ड
##ာ
##း
##𐬀
##𐬢
##𐬵
##𐬎
##𐬁
##𐬌
##ҳ
##フ
##エ
##ク
##ᄐ
##ﻪ
##შ
##ɨ
##փ
##ᆸ
##ʿ
##հ
##ﺴ
##โ
##ม
##ส
##ฟ
##ต
##บ
##อ
##ล
##จ
##ง
##ห
##ว
##ด
##ธ
##น
##ј
##ћ
##ﮐ
##ξ
##ծ
##է
##ﯾ
##भ
##∞
##¹
##ª
##す
##थ
##ʻ
##ﺨ
##ڭ
##≈
##¾
##𐎺
##𐎶
##ﻐ
##ږ
##ग
##³
##ү
##サ
##ナ
##ミ
##ാ
##ค
##か
##な
##˛
##ˌ
##ხ
##đ
##ϵ
##ﺭ
##ﺯ
##ﻥ
##𐬰
##𐬥
##ᵛ
##ᄎ
##ก
##ٿ
##ʲ
##ﺀ
##ڵ
##←
##ী
##ত
##ﻋ
##ท
##เ
##½
##ರ
##ಮ
##ನ
##ਦ
##ਸ
##ロ
##қ
##ғ
##ო
##ტ
##ニ
##ʕ
##ھ
##þ
##ﮑ
##£
##ﺻ
##ს
##თ
##ル
##ﮔ
##¯
##ڑ
##ラ
##ン
##ٲ
##ﺲ
##∨
##♯
##𐎠
##ץ
##ז
##∅
##ি
##দ
##ে
##ݔ
##া
##ল
##พ
##ช
##ﺰ
##ா
##ﻳ
##კ
##ﮬ
##ფ
##և
##ﺗ
##ﺷ
##ܢ
##ܟ
##ܣ
##ܐ
##ː
##コ
##ﺶ
##ေ
##↑
##ɲ
##э
##∗
##ɒ
##ә
##ɬ
##є
##ʒ
##ะ
##च
##ʉ
##ܬ
##ま
##ө
##ᄑ
##に
##は
##𐬙
##𐬈
##♭
##▪
##ﻩ
##ম
##ᅦ
##𐬐
##𐬆
##𐬨
##𐎼
##ध
##დ
##ბ
##ਬ
##⁄
##𐬭
##ು
##⎯
##ਨ
##∧
##ो
##ﺼ
##ܠ
##♦
##ժ
##އ
##މ
##も
##ᅭ
##ハ
##う
##ﻢ
##ٶ
##ܩ
##ウ
##ア
##り
##ា
##ಾ
##ۇ
##ト
##ټ
##ے
##る
##ホ
##ף
##ﺣ
##ᄏ
##ﮓ
##©
##⊆
##ᆺ
##ﻼ
##გ
##ర
##カ
##ォ
##ळ
##ზ
##ம
##জ
##ন
##ﮏ
##হ
##∇
##𐬚
##𐬱
##き
##ट
##ు
##አ
##た
##∑
##∩
##მ
##ɵ
##ʋ
##𐬉
##ﻃ
##♣
##さ
##ち
##த
##セ
##ム
##आ
##⊕
##ħ
##↓
##ړ
##ϑ
##ᴧ
##¦
##ਗ
##ℓ
##℃
##ٸ
##˝
##ﺁ
##¼
##ܥ
##څ
##ѳ
##𐬯
##अ
##ケ
##ʔ
##ィ
##⇒
##ி
##█
##প
##↔
##□
##ځ
##ವ
##¥
##お
##𐬛
##የ
##ƒ
##☆
##∴
##●
##օ
##ﭼ
##ان
##ست
##ای
##ار
در
##ین
##ده
به
##ال
از
##ند
##ور
##ود
می
است
##ام
##های
با
که
##یر
بر
ان
##اد
این
##لی
##اه
##ری
##ون
##رد
را
##ات
##اب
##سی
یک
##وی
##شت
##ها
##یت
##ول
##انی
ام
##است
##اری
##زی
سال
##یل
##فت
##وان
هم
##اس
شده
##وم
##هر
##تر
##رو
##ید
##یم
شد
##ارد
رو
##از
بود
##ستان
او
##خت
##اده
##ایی
##رک
من
##مان
##اق
فر
تو
ال
برای
##نگ
کرد
مو
##گر
شهر
میش
##گاه
ای
##فر
تا
اس
##رب
##کن
ایر
##را
##تی
مح
نی
دارد
۱۹
##یا
مت
شدهاست
سر
جم
یا
خود
##اش
مس
کار
قر
##اشت
##یش
##ادی
##اند
مع
نام
دی
ایران
##له
وی
ار
##اره
##بی
دو
##بر
##اقع
##لا
##نی
##وت
##انه
میشود
۲۰
واقع
##می
کش
##اخت
۱۳
گر
سی
##وری
##الی
##گی
بی
##دی
##قی
نو
نم
مد
##ورد
بو
کر
اب
##کی
قرار
##ههای
##عیت
##نده
میک
##دهاست
##خش
داشت
ده
##ونی
مج
بازی
##کا
روست
نفر
##مین
نیز
پس
فیل
دست
##نوان
باش
##اع
##وز
اش
##اح
##اک
جمعیت
اه
##قه
##زار
کن
دار
##انش
##عه
بخش
##توان
##وس
##وب
دور
امری
##فی
##شم
مر
مق
مش
##الات
فیلم
شهرستان
##امی
یکی
##عد
نق
توس
##نا
##جه
ساخت
مرک
##بت
##امه
هر
کشور
عنوان
##وه
میتوان
نظ
##بال
##گیر
##نین
عم
##فته
##یه
میب
شم
همچ
##وش
انت
استان
##اپ
استف
اد
کم
اث
تر
انها
استفاده
##که
ات
##وند
##زر
دانش
پر
اص
میل
میکند
##ورت
##وار
##جود
جه
تاری
##اف
##در
##ایش
پیش
زیر
انج
بین
##اط
##کل
تح
پای
پی
اف
دیگر
اع
جن
امریکا
تاریخ
##بان
توسط
میباش
داد
عل
##رکت
##گان
منط
هست
##ترین
اول
##عی
۲۰۱
##اخ
##اص
##۰۰
نش
##مد
##ازی
انگ
اج
##رف
##شته
##ارک
##گرد
##امل
مه
روی
##تاب
##هایی
همچنین
##سه
میباشد
مرد
اما
##نج
منطقه
کل
بودهاست
متح
##اید
بسی
##نامه
ملی
بزر
فوت
تن
میلادی
روستا
باز
##مانی
##لو
##کر
بد
خو
##من
##به
اند
##ارت
شر
شرکت
روز
##گذ
##دا
اهل
زی
وجود
فوتبال
##مت
اق
##مو
##خص
صورت
هن
۲۰۰
##ینی
مورد
##يی
دریا
باشد
خان
کتاب
##زه
گرو
چه
ارت
ایالات
##وا
##الت
متحده
زاده
##شی
##کت
##اهی
هستند
کیل
بن
##اتی
کو
بار
##کس
تل
سط
گرفت
مرب
سپ
##ره
تیم
اح
##شک
##ایت
عب
بزرگ
مان
جنگ
اشاره
ساز
مرکز
میر
##ونه
سه
##ابر
متر
فع
چند
##کو
کرده
تص
نس
زمین
تم
سطح
منت
##لس
زمان
زبان
۱۸
##شتر
##ابع
جای
کند
##دار
بال
کیلوم
برخ
سو
بعد
##کنند
رسی
ترک
انگلی
##شماری
ری
گرد
##ادر
بل
دهستان
##or
##مل
زند
##شر
داده
##کان
دانشگاه
میده
ور
مط
گروه
رس
طول
##شن
اغ
سرشماری
فعال
۱۳۸
نخ
##لام
##لید
##شتی
دوره
##تم
حد
مص
##کار
##جی
فران
شود
##وط
##سته
##ویس
شه
انگلیسی
انجام
##رم
شن
داشته
##ندی
حس
دوم
لی
##نه
##دید
##مه
هی
بیشتر
##فه
تب
##قل
نقش
##هاست
اخ
شاه
##چه
دارای
سن
##ربی
##حی
تق
هو
راه
##ابل
##اساس
##اور
اط
##er
##دان
علی
مجمو
نظر
اثر
##گیری
دول
میکنند
##پر
شی
##ومی
کیلومتر
چهار
##لیل
##ودی
گذ
##اي
میان
##او
بوده
نیر
باشگاه
##an
گل
##پی
۱۹۹
قب
بودند
مرکزی
تولید
##ستر
##سان
##ستم
##on
سل
حال
شور
پرو
خط
ساخته
##ینگ
##خان
مانند
تع
##گری
##یره
ثبت
نخست
##دهای
##غی
فرود
۱۲
ماه
##برد
مل
##طور
##ختل
شب
تج
بسیار
##بار
فعالیت
##خاب
##ژه
##نان
##اج
حم
##ضی
##کونی
اولین
برگ
سیارک
##ژی
محمد
امار
اثار
معم
قط
اصلی
انتخاب
##دن
میشوند
فار
مسکونی
اور
سب
##هران
##یمی
جام
##ایل
##صد
##زش
##رین
مردم
##راه
مست
میدهد
مث
روستایی
##ازه
خواه
##امبر
##احت
منتشر
##la
##ایر
یافت
دارند
##گو
شامل
##ضو
##سر
ولی
##in
جز
مساحت
##ابق
مخ
توابع
بیم
تهران
##عات
##شان
##فا
##این
برخی
میکرد
##انیا
حک
۱۰
موسی
نه
سازمان
براساس
جهان
قل
برابر
نز
رفت
مختل
نشان
##عت
اغاز
بالات
مم
##ویی
اک
دن
کلی
##ما
##ینه
##یشه
بع
همراه
غیر
##ولی
کردهاست
همان
##با
##اباد
زندگی
شکل
##شار
##کتر
پیر
##وق
۱۳۸۵
##خانه
جمه
ایج
کردند
##وي
وا
اگر
ایت
##ستی
##غییر
تغییر
دولت
##ضا
عر
##هنگ
گرفته
تنها
فرودگاه
دلیل
هنر
##داشت
کان
ایجاد
بسیاری
##طه
##ریق
جان
##سازی
##خو
نمود
##لق
کردن
المان
##باره
۱۵
اسی
پنج
قدر
کشتی
ممکن
##جر
تشک
بالاتر
جمهوری
سیستم
۱۹۸
جمله
##اخته
تعد
دل
تشکیل
کشف
حدود
##تا
##مای
##ناسی
افر
مربوط
توان
##يیس
شدند
##یده
دوران
خار
اسل
##دم
شک
سنگ
میشد
شدن
اسپ
هزار
فی
کوچ
##یری
ارو
##ورش
کارگرد
##فاع
مار
##وبی
شخص
همین
فرهنگ
افز
روش
##ولا
##ar
بیش
خوان
۱۱
۱۳۹
##ابی
رود
##شد
##صل
توجه
##الیا
پرد
سری
##ومت
جدید
نخستین
مک
ایرانی
##اگ
##فق
فل
باید
جو
##بری
##en
مجموعه
جهانی
اساس
مین
همه
حض
##ایج
میتواند
وق
##صر
##قیق
بهطور
میز
کی
کنند
بازیکن
##نو
۱۷
شهری
##المل
##داری
نمایش
میلی
موسیقی
##es
ست
##سیس
هنگ
##ویه
نوع
سین
سف
ترکی
##راي
##صی
مختلف
برنامه
ناح
۱۹۷
##ایند
نیست
##ضای
خی
گفت
##وهای
##اسی
##ریان
طب
##ونت
##ویزی
##سب
مهم
لو
فرو
اطلا
دید
##بود
اخت
سوم
قد
الب
میگیر
اسلامی
تلویزی
##لب
مدیر
کام
حق
##زد
##وید
یو
بریت
جنوب
اذ
نزدی
بینالمل
##نت
تحت
شمال
خانو
فرانسه
##انت
##خانوار
نسبت
کوه
##یدا
##ستانی
اروپ
فرد
تک
for
ته
ناحیه
مربع
۱۶
پار
امریک
اقت
رسید
حضور
##mu
##خه
نویس
##لاح
##al
پایان
##وست
##کنون
فرمان
##نام
پل
##الد
نگ
سالهای
##عث
شماره
##اض
##رح
داست
۱۴
گفته
هند
##دام
##سم
اموز
##اشی
##داد
باعث
##ران
سیا
اینکه
موارد
##تری
##شاه
##گز
پاد
های
##یدی
ابت
گونه
ایالت
##رسی
شیر
##نای
##ed
وز
سپس
##شناسی
وارد
غربی
شناخته
طی
##راحی
قان
عمل
##زب
۱۹۶
زیادی
##کننده
ول
##ذیر
ريیس
داخ
تمام
بینالمللی
روستای
##mula
خانه
##انس
پدر
افت
##اعی
گو
بهع
formula
رنگ
هد
##ic
نور
مدر
هفت
##روف
صف
##ویت
ادامه
میدان
تعداد
##چی
جایزه
خانواده
##صول
رای
گی
ژان
##دها
اقتص
خر
اعلام
##سیم
یون
جنوبی
##گذاری
##لند
بازیگر
##امد
قابل
قهر
ژاپ
##یتی
بهعنوان
۱۹۴
افزایش
موفق
##کاری
تاسیس
ما
سیاسی
شع
##سون
داستان
شرقی
مغ
کمک
##مند
##ابت
##رات
##ولد
سوی
دری
##زند
##at
##صیل
##is
##وف
مرگ
##یند
ره
ارد
##واره
زمانی
##سد
طبی
محصول
گستر
درباره
##باط
هیچ
قس
شرو
نتی
صد
چون
موجود
یع
خاص
##دال
##وده
کود
گردید
##راف
##وک
##دری
کری
دان
دخ
محل
مسابق
یاد
##په
دیگری
##اران
معمولا
کارگردانی
قبل
##زا
##دیل
درگذ
دریافت
مب
زن
مجلس
##جمه
بریتانیا
موس
خورش
##سن
افراد
خواهد
مسي
جهت
تبدیل
نتیجه
طراحی
انتق
گون
##ریه
شروع
##لاف
کاه
بنی
##اله
البوم
##ia
##طی
##سل
##کرد
سمت
امرو
اورد
نیاز
حکومت
ژوي
۲۵
امریکایی
رشته
تاب
مذ
طریق
بالا
قرن
تاریخی
سید
##ریف
قسمت
مسابقات
بدون
##مر
طرف
اجر
روسی
علمی
##ثیر
چشم
تلویزیونی
پیدا
عضو
الی
میگیرد
۱۹۵
یعنی
##تو
مشه
حزب
تور
رق
دهه
مدت
کا
##مز
فارسی
شمالی
عبارت
مشت
مای
رسیده
نیم
تخ
انسان
برد
##it
ارتباط
سلط
اطلاعات
جل
اجتم
مناط
ارتفاع
شدهاند
ازاد
فق
توسعه
##ولو
بان
##ثر
صح
الم
کوچک
انقل
محد
##وریه
پسر
بهترین
جریان
ترکیب
زمینه
اهنگ
لات
##گردد
نوشته
نوشت
مواد
امد
له
قانون
شورای
برگزار
##جم
##اسب
کوت
انجا
قدرت
کاهش
##سا
تی
وسی
مرا
کنار
فصل
ایتالیا
شکست
اروپا
پرداخت
بیماری
صن
خد
اراي
نظامی
شبکه
مجموع
۲۰۱۰
مشخص
تش
زنان
ارايه
##اعت
علا
تاثیر
##ایه
##غان
##نش
مطال
راب
##لیه
نیروهای
عمومی
##ندگان
##ابقه
استر
خص
فرزند
منظ
##تور
مناطق
##اطر
معر
چی
ژاپن
مرت
تف
##وزه
شیمی
۳۰
نمی
##تل
دختر
ابر
بنا
دنیا
اذرب
حمله
تحصیل
##سانی
میلیون
اسلام
##اسان
۱۹۳
معروف
اسک
##وص
۲۱
پایه
##وزی
##میت
##ارستان
##نامههای
اذربایج
ویر
هشت
##فاوت
سا
سیاست
سام
##اپیم
اجتماعی
چنین
حتی
حالت
##واج
مسل
غرب
برج
کنتر
لاتین
پاس
میگ
ماده
موضو
##ساز
##تن
عبدال
بازار
موج
تپه
۲۲
همچون
##le
##پرات
درجه
نزدیک
عملی
##بیر
بیر
قم
تهیه
##قر
##بور
##تون
چاپ
نیروی
کرمان
ند
میرود
##وپ
کال
پلی
عه
##سال
##جو
دستگاه
##اتر
ازم
پژ
##امین
##میم
داشتهاست
انتشار
##دهم
##خی
۲۴
##ابه
##زمین
علوم
پوش
کسب
##بل
انگل
##وال
حاض
جشن
##وین
ادبی
قلعه
هج
عراق
##حه
انقلاب
مالی
##وله
##یار
درصد
برنده
##پرد
##he
حل
##ریک
ارتش
کشورهای
مدل
پن
##هم
ویژه
حسین
##سین
امپرات
گزار
سرد
اندازه
هواپیم
روسیه
مال
ایل
چین
اکت
##اسم
۱۳۵
حاضر
احتم
##اصله
##بندی
امن
##سوی
کنترل
جوان
طبیعی
هدف
##تیب
مادر
##ویش
##زاده
ساختمان
##گن
بررسی
##رژی
کامل
خاک
برادر
بیان
اموزش
بودن
نف
##قیم
سبک
اجرا
ها
حرکت
##ظه
##غول
۲۳
احمد
مور
##اینده
مقام
فهر
##سک
موق
انان
##انگ
تقسیم
co
هنگام
##رید
##تق
کمی
##مرب
ازد
##سیون
اتح
##ادا
دام
##خوان
مشغول
##وسی
نویسنده
۱۹۲
باند
##ابان
باشند
حقوق
اذربایجان
##re
الکتر
انگلستان
##as
محم
##ندر
هنرپ
امکان
په
۱۹۱
##مربع
ویژ
##گانی
##بانی
##ادل
##رافی
مرح
سیاه
بح
##ورک
مول
جی
پژوه
خارج
تای
حی
جامعه
شو
##سو
فلس
مها
##هام
بازگ
برنامههای
##ik
دهد
ابی
انرژی
گزارش
تحقیق
طرح
سایر
حالی
شاخ
شرق
هنرپیشه
بنابر
##وع
##ریز
شش
بخشی
هز
##زارت
ازدواج
##ip
##لاق
داشتند
واح
ندارد
##الب
محی
تي
نرم
بازیهای
##ابد
سک
##جد
وزارت
رسمی
سرعت
مشکل
اعضای
فیلمی
میدهند
افغان
کیلومترمربع
##الدین
اسم
تصو
ساعت
دنبال
##زیک
شخصیت
لب
عد
فروش
علاوه
عربی
گرم
ابتدا
خودرو
اخرین
مقابل
پذیر
شیمیایی
##el
سخ
##انیان
نسخه
مثال
##ژن
##انا
سده
فهرست
شوند
چندین
کور
شرای
حرف
استاد
اپ
نگه
یه
امام
فرهنگی
ترانه
سیم
وس
##خته
جا
##يت
ترتیب
##وریت
دیده
مدرسه
بزرگترین
ارم
گذاشت
پایین
اشت
بلو
۱۳۷
میگردد
خبر
میزان
ایست
دکتر
روح
همکاری
اصفه
منابع
معرفی
##سوب
خاطر
احتمال
نفت
##اهد
مسی
##واع
##ندگی
مخال
مکان
لهستان
۲۶
حوزه
عق
خانوار
فقط
موضوع
نا
سفر
لیگ
جد
میکردند
##ro
اقتصادی
##جا
طبق
گیر
سپت
##ایان
حسن
ورزش
فاصله
درخت
کردهاند
اچ
##علی
باغ
موتور
تلاش
دستور
روزنامه
مدیریت
##زشکی
علت
میاید
##انو
مهند
اقدام
##اصل
سپتامبر
##نر
بهره
۲۸
هوا
کشته
کد
تیر
##ارهای
غذ
انتخابات
##کتری
##نگی
مثل
اولیه
##نز
##اورد
عهده
میرسد
جلو
مسیر
##ویل
##دهی
ظاه
هنری
مهر
روم
نداشت
بدن
اغلب
مدال
##ویان
عرب
##گران
سرزمین
ریاست
مسجد
محلی
عرض
##هی
##ol
۲۷
کشاور
رشد
##ازم
##فظ
مشهور
##ion
سرده
##کش
توانست
##اوری
تصمیم
دین
##un
مرحله
جدا
پخش
وزیر
مام
فرانسوی
سخت
##شده
اتش
##گار
##ربه
کاربرد
معنی
داخلی
مارس
##گذار
گذشته
نب
##اوی
پاک
##يین
##لیت
##il
وض
خون
تقری
دادن
۱۰۰
درگذشت
وسیله
برخورد
متولد
هوایی
چر
امده
##امت
اکتبر
مهمترین
مف
گیاه
رابطه
##مایی
##بط
کشت
دسته
پیشر
سفید
مذه
ازمایش
##چر
##اها
محدود
پادشاه
##بد
افغانستان
نهای
سان
اوت
بازگشت
نر
انتقال
##ندان
داخل
المانی
لح
همسر
سرب
تعریف
محله
نمایند
قهرمانی
قطع
مید
رخ
##گونه
کوتاه
in
انجمن
شرایط
فرم
ویژگی
جمع
##پل
##ولوژی
انواع
ژانویه
پشت
خیابان
##کده
##مینا
اسف
ورز
مصرف
##گرفت
##am
حمایت
منظور
##فاق
بعضی
خوش
##edia
##ch
محیط
##الله
یواساس
##نس
##مب
گیل
۱۳۶
##وو
بور
وب
گمینا
اجرای
شناس
جزیره
خورشیدی
پزشکی
##ur
مقدار
عملیات
##انیایی
##اخر
تصویر
بنابراین
##بته
مصر
##tr
کات
نمونه
##ریب
اصفهان
دس
درامد
بلند
مطلق
علیه
سالگی
نج
البته
سق
##us
اسپانیا
تاکنون
سع
شهرهای
کاربر
فض
محسوب
##لر
هجری
کیلومتری
##بات
##نتی
وقتی
اتفاق
متن
حو
زیرا
جنب
پا
امور
سابق
##پیک
۲۹
##اهم
##ههایی
استاند
سنت
باستان
رمان
شعر
کمتر
##وران
نبرد
ارام
##tt
بانک
##پرداز
درون
ماهی
##لیم
the
کانادا
بیست
واژه
##مایه
##دمات
##یتر
##زن
ترجمه
عو
درمان
فشار
##دیگر
##بیه
فرا
امیر
##الیایی
##ing
##بین
میگوید
اوریل
فارس
خارجی
##کنش
نظریه
ارمن
اطراف
رادی
قهرمان
##غال
۵۰
شوروی
##راک
ساکن
20
دومین
##خار
مسابقه
##id
##انز
گسترش
##یس
میتوانند
##ریش
نوامبر
مهاجر
باب
سریال
وال
##جام
روان
جغ
##شاهی
تعی
اداره
##مال
دفاع
ریا
۱۳۴
تعیین
چهارم
دسامبر
##عتی
موجب
کشاورزی
هنگامی
##انههای
ازادی
سران
قمری
##ونگ
میرزا
##شمار
گاز
##برداری
زیاد
##اسر
هیيت
##زمان
##اصر
میباشند
سلول
تکن
ایم
کالی
پارک
جشنواره
ماش
میلاد
کاری
##نیا
ویل
پژوهش
سور
دوباره
##ظیم
پروت
متری
##گاهی
حمل
ماند
##جان
ژويیه
نیمه
##خواست
اینتر
تس
پول
رودخانه
##بو
امر
فوریه
هنوز
اباد
۴۰
##یک
##برت
هنرم
افریق
##ايل
فیلمها
##رت
عالی
##اهده
##افزار
ژوين
خواست
##اکی
اض
الگ
##احب
##افر
نوعی
سرمایه
امروزه
معماری
##گاههای
درام
چرا
۲۰۱۱
مشترک
شاع
نقطه
خراسان
##شق
دانشکده
ادبیات
بست
یافته
تقریبا
نص
خواننده
##یدن
واحد
ترکیه
امنیت
مقد
فرایند
کارگردان
قدیم
##يو
خل
##فتر
نامیده
فعالیتهای
##داران
منجر
شیخ
##برگ
بدست
wik
ستاره
راست
متع
المپیک
ضد
پیوست
نبود
اصط
گوش
منص
مبار
اقتصاد
زیست
خلی
۳۱
شرح
سینما
متفاوت
##گانه
تیره
##ریم
نظام
خدمات
کره
نماینده
##پذیر
دا
ایتالیایی
رت
فیلمهای
ارمنی
ساختار
عمر
خدا
##et
رهبر
یکدیگر
رض
##نوی
نامهای
مسلمان
پیشنه
##اظ
##سای
##اهیم
نیوی
##رس
دم
بسته
مکانی
ارمنستان
امپراتوری
##تیک
صفحه
وقت
استرالیا
قاج
حاک
گور
سپاه
of
مراسم
مقا
##ریت
ساده
بعدها
##افق
ساله
##زاری
دریایی
##فن
تدری
لند
یهودی
دادند
اواخر
پدرش
##اقه
##انده
اختص
کسی
جنسی
گرفتهاست
مرز
مستقیم
##ینا
##انهای
##اما
۰۰۰
قتل
مناسب
معنای
##نویس
اجازه
نیویورک
تمامی
دلار
۱۹۰
ماد
نهایت
موقعیت
مسيله
##اتا
تاک
قدیمی
۲۰۱۲
##مع
##ارا
پاسخ
دولتی
وضعیت
فرست
۲۰۰۸
##ظت
واکنش
استقل
عامل
##os
وح
##لز
سرخ
##وصی
پادشاهی
نت
##شهر
دفتر
##میر
##تح
دبیر
استقلال
مدتی
حاصل
علم
##افه
##ونا
عض
خورشید
##ینو
##شتری
##یدان
نقل
طبقه
پروژه
قز
رده
نزدیکی
en
##ow
##افت
۲۰۰۰
دقیق
جرم
بهشمار
حذ
رقابت
درگذشته
۱۳۳
۳۵
سبب
۲۰۰۹
خودش
فضای
جر
اشک
خواهر
کوم
##ut
پیچ
شخصی
زبانهای
اختیار
جاده
نمیت
##ارش
##سکی
قرارد
پیروزی
##گین
بگیر
ماشین
بعدی
##چار
##گون
سبز
##ویب
داری
خرو
تری
شهرد
##ماند
بلکه
##بع
اصل
گن
روشن
کلا
ابن
باقی
گرفتن
مجله
مشاهده
کالیفر
سرانجام
زم
مستقل
مارک
##راج
گوناگ
حر
##ipedia
##ناوری
توم
کلاس
wikipedia
جذ
بیت
##سید
##ابط
اعد
رهبری
کرب
مطرح
خدمت
مخالف
ذکر
رتبه
حفظ
فراهم
گاهی
تصویب
##بک
خصوص
##قان
عن
نمیش
مهندسی
چار
##هها
بس
تجاری
##گل
مدار
عدم
ساس
تد
خصوصی
ورود
مشابه
خور
پهل
نقاشی
##گا
##ad
گذر
عث
##اتور
پیشنهاد
ناب
تامین
۶۰
برتر
بیشتری
بنیان
##ولین
ارز
##کم
ماز
زندان
اساسی
زنده
دوست
صنعت
طلا
گروهی
لندن
لازم
##گرا
مز
عبارتند
ثابت
موسسه
۲۰۰۶
قیم
توصی
وزن
نمیتوان
پرواز
سیل
کالیفرنیا
دنی
واب
سلطان
بالای
خرد
##خصوص
##ac
سوریه
اوایل
##اتیک
باشگاههایی
جع
جغرافی
رفته
##وج
فناوری
برده
اعتر
سوي
##رايیل
an
گری
صنعتی
##لهای
بزرگی
۲۰۱۴
همزمان
هل
۱۳۲
قاب
##یز
ویلی
رد
موزه
بدین
میداد
اصلاح
ابتد
کاملا
انکه
ارک
پاری
قاجار
خلق
مون
معتق
پشتی
گاه
##ریزی
کودکان
بتوان
متعد
روابط
##فای
بافت
رساند
رز
##لین
شهرک
##اهای
۲۰۰۷
عصر
۲۰۱۳
##جز
باور
##اون
سنتی
ارزش
جنبش
محصولات
طل
##op
سود
لر
مبت
درو
خورد
تال
مذهبی
۱۳۹۵
پال
حساب
۳۲
نرمافزار
میی
ابزار
ماس
اتحادی
##ttp
گشت
سم
علاقه
##فع
کمپ
رشت
##ونده
اسرايیل
هما
دوچر
##دل
اصطلاح
متحد
عرضه
http
اطلاع
رک
معتقد
تشخی
##اجه
##لیک
عباس
چک
پرت
تعدادی
##راح
هار
شبیه
زیب
##طان
مطالعه
تياتر
##اماس
عدد
##شناس
اهمیت
##پور
##ونیک
وظ
##تهای
اسیا
دع
بیرون
اضافه
##رده
مردان
##ژاد
۱۸۹
ريیسجمه
دوچرخه
زد
اخیر
##وشی
جایگز
۲۰۱۶
دانشج
خطر
##ig
کارهای
##فل
ch
پاپ
میگو
مجد
پوشش
توصیف
##وانی
اتاق
زنج
سرباز
الف
ملل
هفته
ریاضی
ماری
گردش
خش
لحاظ
دقی
حاف
توزی
وین
ویت
##دین
امدهاست
روشهای
جلوگیری
شهرت
##زاد
نزد
##ir
##ایز
فوق
قوان
مفه
صاحب
بومی
تابع
باد
کنگ
##ته
هید
تحقیقات
استاندارد
عص
##نظ
متو
##کول
مقاومت
محمود
فول
کتابخانه
گسترده
جایی
تلویزیون
تشخیص
تخت
سیر
##ورا
اکنون
##شیر
توزیع
تبریز
سرو
شدت
نیرو
##وذ
متوس
هزینه
تفاوت
##غیر
ذخ
خاند
اختصاص
##۵۰
پو
##لح
فری
پاریس
##تخت
وید
اختلاف
خویش
برزی
ولایت
موفقیت
فلسفه
هماکنون
##حل
نقاط
اتحادیه
میگویند
ارشد
پیم
۳۶
##کوم
۲۰۰۵
فن
##زل
سراسر
##کز
##اکس
خوبی
درست
برجسته
۲۰۱۵
جست
اسیب
شهرداری
داشتن
دیوار
توانایی
##غذ
ریشه
اسپانیایی
اید
ایز
##ستگی
میانه
گروههای
##دریایی
##قیان
منطق
طور
##رکز
##سکو
پهلوی
حرفهای
شمار
سایت
اکس
ساح
زیردریایی
اتم
مختلفی
۳۳
صرف
اتحاد
جیم
##ورتی
عملکرد
نار
صنای
##یته
توپ
##صه
۸۰
##لم
پست
پایتخت
##ویم
استخ
احس
##نهای
اعت
دره
الگوریت
##۰۰۰
##شا
میگذ
##iv
میپرداز
قلم
##قب
رم
وار
سکونت
چیزی
تنظیم
ورودی
مهاجرت
دچار
##ادو
قوانین
##کند
ادع
##طر
میگیرند
ایشان
واقعی
بازیگران
##ادهای
##خواه
عمده
انچه
روب
ترا
بخشهای
ویلیام
##الم
صنایع
پلیس
منتقل
روستاهای
انسانی
صدا
شاعر
معت
ريیسجمهور
ظرف
برق
##ent
##وتر
ایستگاه
ورزشگاه
حکم
تایید
پاکستان
##الهای
کیف
نظیر
نهایی
##رز
دستی
##عم
##انیه
مری
ماج
##om
ظاهر
درخواست
##یترین
لباس
محب
بیمارستان
##قیه
رسیدن
۷۰
##کوه
##ادث
نسل
رفتار
##ادگی
خاصی
عبور
قیمت
تحلیل
پیام
سیاستمد
استی
دمو
فتح
یونانی
بند
شدید
عثمانی
بلوچ
کریست
عنا
##سپ
##ویز
امتی
اسب
تحصیلات
لا
خیلی
کاپ
مینم
ورزشی
##مینی
##دههای
دانشمند
دریای
جغرافیایی
##کتور
متعلق
##لان
or
##وای
##کشی
نگهداری
گیلان
##وما
اکثر
##ولیت
سابقه
ژانر
قالب
ویژگیهای
##ومه
##پا
سانت
مییابد
اعمال
##فس
مشکلات
الگوریتم
##فات
بازر
سریع
دشت
سومین
رضا
##وتا
۹۰
de
##ag
محاف
کرمانشاه
دقیقه
الکتری
۲۰۱۷
فرار
دسترسی
خاندان
##تس
کارخانه
##ورو
بحث
ناپ
عشق
لای
منبع
قابلیت
کرو
##اقل
##ازده
معادل
فرمول
دادگاه
دشم
مقای
برزیل
فرمانده
شما
بنیاد
پان
##ot
پیشرفت
لغ
##عود
قبیل
برخوردار
همچنان
##گرم
##شید
پایگاه
اخر
کتابهای
##بیل
قی
اندیس
پور
جور
زرد
همانند
خوز
بهمن
۲۰۰۴
تگز
دیر
##بینی
سخن
خوانده
کامپی
تغییرات
##اهنگ
تاج
نفوذ
حذف
برداشت
##نویسی
قطعه
پنجم
اموزشی
احساس
۴۵
میبرد
تگزاس
مهدی
اروپایی
سازی
مرتبط
دهند
هدایت
اینده
۱۸۸
نح
سیستمهای
تازه
اچاماس
ضرب
صادر
##سیر
صحنه
##سیل
پرا
وابسته
هلند
مبارزه
دود
فیزیک
##شه
مقاله
ناشی
پیوند
۳۴
##ظم
مدرن
شناسایی
چهر
نامه
رون
ارا
سد
اری
پشتیبانی
منتق
عرو
برگزی
۱۸۶
رایج
کف
خوزستان
شیراز
مقایسه
اورده
##کور
##قرار
قادر
st
حاکم
##em
کارشناسی
مطالعات
دانست
جایگزین
مفهوم
بندر
محبوب
فیلمنامه
والی
اتریش
تخص
اعتراض
قض
نشده
کشوری
همیشه
نمایندگان
##۲۰
میکن
جذب
ذخیره
مسیحی
پرداز
##ستون
ران
##عب
خام
چنان
نواز
##ساند
طولانی
یکم
امی
خس
ابراهیم
تجربه
پدید
##لیپ
صلح
##احی
۱۳۱
۳۷
مالک
##قا
##یشن
##هاش
عبدالله
نهاد
بکار
اوست
بش
##يون
##ec
جانش
زا
لین
عکس
تیمهای
متصل
سیستان
معد
بشر
همگانی
غل
##ویا
مقدس
کنید
سرک
شیوه
گوناگون
##سیک
فرض
##صت
کاخ
##st
نات
مات
بهتر
دهنده
تام
کت
تدریس
##ناد
دارو
ذه
خلا
##de
فردی
حج
قران
کسانی
##غل
باستانی
عربستان
فیزی
امروز
نموده
بای
##وارد
الکتریکی
##کهای
نشد
دای
خوب
حیوان
##درا
کلیسای
اصول
۳۸
هیدرو
شا
کلمه
بهبود
##زم
سای
##ess
مسايل
جایگاه
##ارات
پیاده
##ختی
پناه
##ارف
سیاستمدار
نامزد
##im
##الح
بزرگتر
شرکتهای
تنگ
##اندازی
اجرایی
##ارتی
دریاچه
شبه
بری
اگرچه
##گرایی
هوای
چپ
صفر
روایت
قرمز
پیشین
##زشک
al
عقب
اسید
بیشترین
مخصوص
پوست
##00
##باری
شای
جدول
##رای
احتمالا
##ادار
قصد
##ندران
حداقل
دهانه
بودهاند
##مون
عوامل
##فرو
سنج
##اجی
نشست
متغیر
ترب
ابوال
۲۰۱۸
انتظ
امپراتور
خلیج
منح
هنرمند
قوی
اندر
##ژیک
صدای
کنونی
تابستانی
اهالی
گذشت
مسافر
con
19
واس
تز
جیمز
خشک
##اچ
بلوچستان
مازندران
جامع
سلس
امتیاز
کافی
##زان
نها
توضی
۲۰۰۳
سلی
مسيول
اسکار
روحانی
رح
مارت
دینی
۱۳۰
##ايی
افس
##and
درگیری
فنی
##کین
##وتی
مهمی
۲۰۰۲
سینمایی
نوری
##وسف
داي
میشدند
ون
##الو
بیل
##ين
##دارند
##um
##وطه
شار
بهداشت
۱۹۹۰
۱۸۷
مایکل
##ul
خرم
##رود
مجبور
دیوان
قانونی
لایه
رادیو
مسیح
##ثی
معمول
##امون
##گردان
سند
اقیان
نیو
ar
تبلی
حفا
گز
##الع
میخ
دادهاست
مقر
دمای
مشهد
راک
چشمه
بیمار
بخ
گرفتند
اهن
سويد
کوش
میلیارد
کودک
##ویچ
اختل
##دراسیون
افتاد
سالها
میپردازد
محاس
دیوید
نمیشود
گونهای
##کام
اعتق
##زیه
سلام
نتایج
گنج
قرارداد
گذاشته
فارغ
اماده
الکس
ریچ
یونان
پرورش
هواپیما
کمیته
##ter
مدنی
ادی
اژ
خال
شناخت
##فورد
##جع
##انگی
##ریس
کشیده
نادر
##نشین
ناصر
##اندر
ایفای
دوستان
تابستان
##ap
بید
اسکات
فضایی
قطعنامه
۴۸
متوسط
زده
اهد
سلسله
ناگ
فضا
مربی
کیلو
مخت
##سوار
اشع
زیبا
صورتی
امریکای
محاسبه
۱۹۹۹
تجارت
چینی
چیز
توضیح
موافق
نگاه
چاه
روس
عاش
##میل
۱۹۹۸
خرید
کاب
##اندن
افرادی
۲۰۰۱
محور
پدی
مجارستان
مدرک
مسلمانان
میدانند
##نگار
نواحی
واش
خطی
##اشد
نمون
ژاپنی
مشرو
گردد
تبلیغ
پروتيین
۴۴
اتص
##شکر
##اعیل
حقیق
مثلا
##نات
##بورگ
مکت
وظی
201
۳۹
عین
کارل
طبیعت
نصب
فرماندهی
ابهام
کیفیت
دب
سقوط
##ستند
مادرش
##هایش
نقره
چوب
قطر
افتخار
کنیم
جدیدی
سعی
##يه
re
##زدایی
۴۲
سلطنت
رقص
فیلیپ
سوخت
رابرت
زمینی
ابان
کول
۴۱
موثر
ویکی
محق
دعوت
پزشک
پری
فین
ژن
مراکز
اقای
نماید
شکار
##وردی
ضر
جبه
کاش
کومونه
##شنبه
الن
##ib
محوطه
##کران
مستند
##ویسد
گم
دنیای
هواگرد
دیدار
##ایق
ویرج
مانده
گیاهان
شیعه
سار
۴۳
##اقی
تجه
بغ
شنا
##ناطی
##ابری
فلز
##قت
ac
اسماعیل
کننده
کاست
فلور
سوسی
کهن
شاخه
##شهای
گویش
شهرها
کردستان
خاور
تجهیز
##ant
چهل
مواجه
اخلاق
##نایی
نماد
ششم
معاصر
امید
نامگذاری
##کری
##چند
مشاور
اعتقاد
ضبط
الله
روند
دستگیر
میداند
متم
افریقا
بروز
جنگی
##گه
همواره
حاج
سرویس
بازسازی
##وچ
##خیر
۵۵
غذایی
فراو
##ay
جزيی
سوز
پرچ
##ستری
وظیفه
بق
عناصر
سهام
تون
ناش
##افع
پیمان
##کلی
##غه
ماک
ملک
دموکر
مغز
صاد
برگزاری
فلزی
##گرفته
##od
رفتن
##ادت
بگیرد
محکوم
نوشتن
گیرد
۴۷
سامانه
##طوری
حقیقت
مشارک
تار
ایده
حلقه
میساز
ظرفیت
قبر
صلی
میرا
##اشا
نان
org
یخ
راس
##ty
نای
##اویر
##حیح
نظارت
سلولهای
##وتو
محدوده
عمد
##لیو
جنس
##یلد
نظری
شاید
##سلط
##حسین
##یسی
حفاظت
کمونی
نجات
شهید
فراوانی
پرنده
علیر
تکر
قطب
##ation
ماموریت
خات
میخو
رمز
۴۶
فو
اختر
۶۵
اذر
##جوان
باری
یاتا
معاد
۱۹۸۰
##اهن
مسکن
کشورها
استودی
تولد
##مات
صحبت
##کها
کلاسیک
خری
مونت
سرم
یهودیان
##پوش
مرغ
ph
بازداشت
وای
درد
فس
قبلی
هندی
اظه
اشتب
مینماید
دما
۵۰۰
گیت
دبیرستان
اندازهگیری
الجز
مخالفت
عضویت
اسفالت
خواب
۵۷
##ورگ
هیل
کوب
میکرو
جلد
ندارند
##th
منفی
اوج
نویسندگی
جوانان
کمپانی
13
بهار
هور
هرچند
چال
یزد
معاون
واژ
##باز
لذ
##ذیری
تقویم
ستون
مینویسد
۵۱
تصرف
دیگران
رام
تمد
جزو
فرستاد
##رهای
اعدام
دامنه
خطوط
com
فرمانرو
رومی
##پس
##وح
دوچرخهسوار
اواز
۶۴
شهروند
سرطان
هسته
ناخ
درک
حافظه
کامپیوتر
فراوان
حجم
قه
فیر
خرداد
دانشجویان
##مار
جبهه
تصاد
تخریب
بیا
##ناس
هفتم
##زدهم
تاکید
روغ
##ak
نویسندگان
استخوان
##قات
سلطنتی
حدی
ایرانیان
##وام
##oc
##لات
##ولف
جورج
متعددی
پتر
صب
اهداف
##روز
بده
قرب
##تمند
معدنی
and
مجموعهای
موسیق
اقیانوس
##انهها
عمدتا
سنگین
هنرهای
امروزی
اشنا
قطعات
علیا
۵۴
##اپور
متوجه
dis
۷۵
دز
همدان
ضمن
خمینی
معل
##بول
منصوب
اینترنت
بخار
##لاک
##ers
سلاح
##ادمی
میزبان
ابهامزدایی
فیزیکی
هستهای
انتشارات
گال
بمب
۵۲
جزایر
ثرو
میرفت
۴۹
##لوب
##مولی
بلغ
تجزیه
ارسال
##ab
دیدگاه
۵۳
نرخ
##امپ
اتوم
پیرامون
میرو
خودر
الح
##کیه
زمستان
##نجی
نیستند
قلب
لقب
موسس
بالایی
دون
۲۰۱۹
حیات
زمینلر
زیبایی
فلسط
باقیم
۱۳۹۰
دربار
خیر
##کته
سیتی
##وفی
کمدی
##ینگتن
فدر
مجاز
##اهر
دوی
اهنگساز
فکر
بهر
نقشه
بنام
اطلاعاتی
انگلیس
اکث
موشک
میگرفت
ممن
گران
##عهده
coun
پنجاه
مشارکت
۱۹۹۲
۱۹۹۶
نیش
پیشبینی
زخ
ارژ
اشغال
اسفند
##گاری
۱۹۷۰
ردی
سوار
##واری
الع
مثبت
همسرش
ترکیبی
قزوین
کوچکتر
خلاف
##تان
کدام
##شکل
##امن
تجهیزات
فدراسیون
زر
برنز
اشکار
تلفن
اشتباه
جنگل
سفلی
لشکر
چهارمین
##کنندگان
اتصال
سرمایهگذاری
##التح
سالی
##ie
پرست
شهریور
ارزی
ایین
حاوی
۵۶
بیستم
ظه
##cl
اکادمی
##جیت
##قیب
نکرد
دانسته
برنامهریزی
۱۹۶۰
جانشین
##یمتر
##بند
امدن
تهیهکننده
فارغالتح
ریچارد
اي
##مهای
میاورد
صند
قلمرو
عف
##کههای
کلمب
##گرافی
##og
کتابی
##عیف
همج
عنصر
تکنیک
ایوان
نژاد
۵۸
##یرو
ابتدای
کنسر
ویدي
گراف
۱۹۹۷
استرات
۶۱
##وسته
برگزیده
فعلی
نسخ
پرونده
میراث
##جوی
دوربین
طراح
غذا
کوههای
##ce
مایع
رکورد
##نوعی
##لاند
##پار
##ایم
هواپیمایی
تفسیر
##av
##درضا
دروازه
مقامات
تالی
شان
گام
قره
۱۹۹۱
مقدم
ورزشک
طر
##حال
رسیدهاست
زمینلرزه
##یدند
حادث
سگ
هاش
##ایف
مناس
##انید
اردی
هنرمندان
##ورف
##رار
خواهند
گونههای
راح
واشینگتن
برمی
بتواند
بت
##ناطیسی
##بس
ساحل
صفوی
نتوان
##بخش
بنای
امنیتی
جراحی
توافق
##گیل
شورش
انتقاد
بلژیک
منطقهای
۳۰۰
برقرار
پارسی
##زنی
##وستان
گرایش
##سانس
##حات
درمانی
پیچیده
سرا
خسرو
نرو
وست
جمعاوری
سینمای
دسترس
##قیاس
راهی
##یاش
محر
معمولی
##ict
خروجی
##ايو
نخستوز
مذهب
لرستان
یافتهاست
کاس
کامی
تماس
تهدید
##وره
قوم
بنگ
چرخ
گلی
##امیز
لیست
##بهشت
بندی
والیبال
قسم
الکترونی
امضا
لاک
کابل
##نگاری
تکنولوژی
ارژانت
امین
شاهزاده
ابتدایی
کودکی
##یتا
مینام
گند
۱۹۹۴
اسپر
مطابق
۶۳
سرپر
county
مرداد
شاهد
مایک
برن
مغول
مقیاس
ویکیپ
##یدر
##اضی
##جار
مسلح
شاخص
##صورت
اوردن
سوسیالی
بالغ
درس
سخنر
کامپ
زرت
نیک
پات
سخنرانی
##غم
لوله
##ولت
##کسون
سعید
اردیبهشت
کلیسا
شیرین
یافتن
##زده
حاجی
##زای
۶۲
##ضه
تض
پاب
میروند
اقامت
زدن
۱۹۹۵
سکونتگاه
ادوارد
##اژ
کاربران
پیامبر
شف
نسبتا
اعداد
اینجا
دیپل
ناز
عاشق
الدین
##کیل
##داث
سانتیمتر
##ماه
##اشته
پرتاب
##ld
اثبات
##وانه
هوش
##تاح
نقاش
اشعار
اکسی
##غام
۵۹
نشر
##امو
رضوی
فاز
##قابل
##ایای
##التی
مض
ناو
##انیم
امو
سالن
۸۵
دیجیت
##عید
کربن
یابد
دورانهای
برعهده
پرچم
پرس
تقویت
قبول
ادعا
بهرهبرداری
دوازده
۶۶
سلو
##تاژ
مسيولیت
##صار
مولی
احداث
هرگز
##ینت
##واز
##لیس
ارتباطات
انح
##ونز
مخفی
تان
مکتب
راهن
##ity
تکرار
مجدد
##na
حیوانات
کنگره
##گس
پارل
پنه
##ختیاری
متخص
ریز
محمدرضا
اسمان
بقیه
##اصره
##نک
مستقر
جدی
استع
غیره
دشمن
ارب
نخو
توجهی
اظهار
۹۵
تصاویر
استق
رست
مقط
نقد
۱۹۹۳
کانال
الجزایر
ثانیه
##فری
##صاب
متف
بغداد
تمرکز
ساختن
اعتم
رژ
روغن
الق
دال
##مپ
ظاهری
##طفی
۱۸۵
متخصص
سعودی
##زیم
سیگن
۱۸۴
نمایشنامه
۹۶
##وردین
پیوسته
##ov
دراز
سالانه
عام
ثمر
##خوار
کیلوگرم
فدرال
۶۸
##شناسان
هزاره
مالیات
##کوس
هشتم
امامزاده
پدیده
ویند
شبکههای
درخش
مارتین
محاصره
۱۸۰
دلایل
گوشت
مراحل
گش
افتتاح
کلیه
سويیس
۸۸
ملاق
طلایی
##ریح
میکنیم
زنی
##ويل
پیتر
ایا
۶۷
فارغالتحصیل
##برند
خانم
غلام
##جایی
دگر
##وقی
شمسی
البر
تدوین
##ودن
نوجوان
بختیاری
درگیر
رب
حداک
اینگونه
رویداد
وان
بلغارستان
رایانه
حادثه
200
حرک
۷۴
کلید
غار
تخصصی
ذرات
اسناد
دانشگاهی
##اوتی
##ناک
##۱۰
جلب
عمی
انتهای
طوری
مظ
حومه
##خر
تخم
لبنان
خاط
۱۹۸۹
مبتنی
ارزیابی
تيوری
خالی
##۱۳
ساسانی
میسازد
میانگین
##کسی
دانشمندان
کس
اداری
عادی
خواند
مکزیک
سنگی
##شمند
شناسه
بریتانیایی
دندان
نشانه
##ودا
عصبی
انف
دادهاند
جزء
جوایز
تروری
distr
عقی
انیم
۷۲
##ومن
ne
متعدد
فایل
نیشاب
سناتور
رها
خارجه
بعدا
۱۳۵۷
is
ارژانتین
فروردین
##ظر
بازیکنان
تاجی
هواپیمای
##ian
##ووا
##الا
##متر
انتی
##نفر
حوالی
ظهور
حداکثر
حملات
##بیت
نگر
پایانی
۷۳
گیاهی
پذیرفت
انتظار
فرانک
بول
##۱۹
راهاندازی
لیت
دهم
##انزده
##ree
اکبر
مبل
##هان
##اء
برادرش
همر
پنجمین
##اهیر
دارایی
##لت
##کاس
اعتماد
احتر
ارامگاه
هرمز
تربیت
صبح
یونی
گردشگری
وقوع
داشتهاند
کلمبیا
رژیم
district
پذیرش
فور
جعفر
ساسانیان
##اسیون
##ینوی
خانگی
اقدامات
ابد
##ازدهم
۹۸
باکتری
ادم
##لاین
##تین
نمایشگاه
گردیده
اگ
##کاسی
اندکی
خواندن
۱۹۸۸
##ودر
##عهد
##وزف
فیلمهایی
##کیو
نشریه
امکانات
هویت
چهره
شغل
محدودیت
فیلمنامهنویس
افسر
تغذ
اتهام
نهم
بام
کالج
۹۹
خواهرخوان
هفتاد
ملاقات
ابادی
روزهای
بطور
انق
نوازنده
میافت
کاز
گرچه
قسمتی
##سنی
زندانی
مخاط
۷۷
##ونها
ملا
##اهنگی
سختی
خودکشی
##لع
دورههای
بیماران
##غر
صدر
##يوس
سپرده
جنگهای
پورت
نمودند
خشونت
##استیک
کارت
کنس
۷۶
۹۷
عهد
خروج
##وقف
مایل
فرزندان
میوه
بهد
حرارت
قله
##ایفه
اردو
سانتی
همس
زب
۸۶
کاروان
کمیسیون
ایرلند
مذاک
دیدن
رشتههای
##ازهای
##eb
شیعی
##ایات
مقطع
۹۳
میخوان
موسیقیدان
۷۸
زود
۹۲
متوقف
مجموعههای
##فال
##ist
خلیفه
خواص
مدارس
##ایا
قاره
بوت
##رون
گرین
##ورهای
هری
۸۷
ویروس
۶۹
دادههای
نمیکند
نوک
گنبد
اسیای
اختلال
سینه
عرف
ابع
تصور
##الدوله
عش
##ors
جوانی
عموما
سازمانهای
نیت
حمام
##پت
بورس
صحیح
اوقات
اکو
بیگ
##ارن
طایفه
برسد
##زید
tr
زلز
داستانهای
فرستاده
جفت
کین
سربازان
شخصیتهای
بهینه
اعتبار
##دهنده
پذیرفته
شصت
##زام
ابشار
##فش
کارولین
برگشت
ایکس
##ورن
##گوست
بردن
ازمون
باقیمانده
##ادیر
##est
هخ
۱۲۹
مردی
بابل
تکمیل
درختان
سوپر
صلیبی
کاغذ
زمینهای
هتل
##فور
الهام
پایدار
##پذیری
##باب
ملکه
صادق
جین
ویکتور
برلین
۸۹
مبتلا
شری
##مج
##ابله
##مح
فولاد
پرداخته
ریش
مقالات
تغذیه
سلیمان
##ونو
قاضی
چش
##طیل
##ردی
سدههای
گیرنده
نازی
##طن
وسایل
مجمع
انگی
۱۲۸
کوهستانی
زین
##یلا
لويی
۸۴
۹۴
متشکل
مسکو
نمیتواند
بازنش
##ینههای
فاط
کوچکی
گاو
شج
##ختری
مولکول
##چههای
##قف
کنفر
سیب
پید
برخلاف
پژوهشی
نداشته
دش
محاسب
##یما
##یاء
موری
میگرد
##io
۱۸۳
امت
پسرش
منتقدان
کوتاهی
۸۳
##ang
انسانها
##ودهاست
##اشیه
نیل
محت
بازدید
انتونی
گره
##ولیک
سول
کوان
##وود
مجددا
گرگ
جرج
هال
ایلینوی
معتبر
۱۳۸۸
معا
دقت
۴۰۰
۷۹
نوار
##يم
ویديویی
ملت
افریقای
کمونیست
اطلاق
##cy
ایفا
بازمی
##قیقی
##ولیس
##پن
##طبی
##دهاند
توماس
زلزله
بیماریهای
##طوب
پیشرفته
ولز
##all
بازیگری
خداوند
قدیمیترین
نفتی
خم
فرید
کلاه
لار
یوسف
ویندوز
کنون
گرافی
فینال
گستردهای
##زین
وجه
طال
##امنشی
##تای
##ub
##یرا
##کوف
بک
زاد
قص
اسیایی
##ینیا
ممت
ww
##امیان
ذهن
هخامنشی
بحران
فراینده
مقابله
پاي
بم
شل
غر
##ویق
مردمان
خودروهای
هان
میایند
کارگران
ورزشکار
۱۹۸۶
رنج
نصر
تحریک
۸۲
##لاس
ارس
حین
چارلز
مغناطیسی
##وزن
خانوادگی
۹۱
##جستان
استانهای
مامور
پابکم
##گراد
##طوریکه
داور
نع
##اطع
تمایل
مخلو
مبنی
دیل
چای
واقعیت
نحوه
sp
پرده
مینه
ابعاد
ارش
فلکی
یکسان
فیلمبرداری
کروم
جاس
نشدهاست
مصنوعی
نخستوزیر
۱۵۰
نامی
تمدن
منع
br
جوش
اتمام
واسطه
ضعیف
ریاضیات
دودمان
##زو
اوی
تخمین
تنی
راهاهن
##طرف
مسعود
خوار
کاربردی
۱۹۸۴
ژنر
دراورد
میخواهد
##کال
حاشیه
الکساندر
موش
pro
##پول
ماجرا
##وایی
روبرو
مانع
گرفتهاند
دانشگاههای
##ard
تالیف
##سند
ایمنی
##چشم
معبد
هول
متهم
اندیشه
مقادیر
الهی
ارکستر
سطوح
مصد
طبقهبندی
هاو
نود
مراق
##سوف
نوزدهم
##زلی
##وریان
انع
بچه
واک
جمعه
مرور
ساکنان
عباسی
##عامل
کنفرانس
سلامت
کارنامه
معرو
همجنس
##شین
دستگاههای
اوکر
جاب
قنات
۱۳۹۲
رهبران
##sh
اروم
نفوس
عزی
نگارش
الکترونیکی
##بای
##مارک
بهرام
##تیو
شباه
نوشتههای
##ایتی
un
##ایع
اکثریت
تقا
بز
۱۲۰
مرتب
عرصه
۱۹۸۲
نروژ
اگاهی
تکاهنگ
##استه
سقف
نکته
##چوب
##ort
برو
##صری
کمال
پیروز
جمعی
نوین
عمق
خبری
##ساخت
نیشابور
ادغام
حافظ
کریم
وبگاه
پردازش
انقلابی
بوی
یار
حقوقی
مفید
##if
قسمتهای
اشکال
سیاره
تقد
مردمی
##اکو
کاند
کیم
داریوش
دموکرات
بارها
استن
نباید
معرض
واگذار
ارتباطی
th
##اتو
بیه
سرکوب
برود
تصادفی
۷۱
##ine
##دیه
تظ
متون
فیروز
گفتگو
محسن
روید
طیف
##انزدهم
##یلی
۱۹۵۰
چگونه
بهکار
خریداری
اگوست
##نیه
##ماهی
استقبال
عقیده
نمایندگی
هشتاد
##ینز
دیجیتال
علامت
ژنتی
دارا
استدل
همکار
قهرمانان
مهارت
##اورده
##دت
sh
##اسکا
انب
to
وضع
اهدا
ششمین
نابود
##میان
باران
##اتل
##زهای
##ایزی
قبلا
##احمد
قدمت
عکاسی
شام
بودجه
10
کلر
نکر
فرام
##کنده
کنندگان
تالار
میدادند
متفاوتی
کارولینای
میانی
برند
۱۹۸۷
##سیا
##uc
سازنده
تبعید
جستجو
جبر
همانطور
مدرس
le
قار
همگی
استاندار
استح
اعط
گورستان
##جات
##ber
##جای
##سرای
اقوام
الکترونیک
##خوانی
پنهان
دادهها
محافظت
پین
فلسطین
خواجه
شیشه
محقق
کردی
سوس
##ونیا
محمدعلی
گود
منزل
##نامهای
جسم
am
تحول
##سرا
##صیلی
##قلی
اسکاتلند
ابو
جلال
ژنرال
ردیف
درح
وام
فیلسوف
فرک
##سیلو
اختراع
اخلاقی
free
اقا
##راب
سپاهی
کشید
قش
##اته
گلستان
۱۹۷۹
موزیک
##فرد
رستم
عیسی
ایندی
کمرب
مجوز
##صیه
بنیانگذار
ممنوع
فلوریدا
##ابند
جستجوی
بارد
##جیب
براورد
بخاطر
تمرین
##شو
روانی
زهر
الت
پارلمان
##دیای
##ill
برگرفته
۱۹۸۵
شرط
زاویه
بالاترین
بلا
رواج
تست
##گور
پیکر
عدهای
مدافع
لنگ
ویس
توصیه
ترس
الاب
خاورمی
ضربه
##ومر
توی
حوز
۱۳۹۶
انس
خز
##مندان
۱۹۸۱
مالکیت
حفر
صعود
تاجیک
بدان
##گفت
اتمی
##وارت
ستار
قاي
اردبیل
پد
##فان
اون
نماز
روزانه
هکت
اواس
مرو
رقم
php
بستگی
mol
گوناگونی
دژ
هف
کانی
اله
دنباله
عظیم
##چین
وسط
ناک
اولی
نمونههای
اینها
ري
مهندس
مگ
inde
جوایزی
mar
میافتد
راسته
قرون
##ell
گویند
واحدهای
فقه
برنامهنویسی
جکسون
دیم
معین
پروژ
رابط
بایر
فره
پارام
صلاح
تجدید
سیگنال
##کنان
جلسه
متمرکز
جانب
محلول
##منت
سهم
قصر
##گزاری
۱۹۴۵
##سور
کناره
ارن
دانمارک
چم
خاورمیانه
##clop
##ra
عمیق
مصطفی
استخراج
افزوده
مبنای
##اهرات
سفیر
خدای
لس
##زدی
داستانی
کاربردهای
هیت
جواب
هفتمین
##cyclop
مدلهای
کمتری
encyclop
##بره
اهواز
راحتی
##ونزی
##مینان
یمن
میکشد
نخواهد
##جن
بزرگان
##اگا
عط
ابهای
فروند
##گرفتگی
عوض
افتاده
انتخابیه
نبر
##چستر
##امع
همراهی
زوج
##اوز
بسکت
تجربی
اموخت
شریف
مدعی
قلبی
سردار
میتو
سالم
تحویل
کانون
موسوم
جامد
##نظر
مصاح
۱۹۷۶
##زایی
##cess
معادله
ناس
دختران
خاطرات
سندی
##شاری
##بن
##فترین
index
سوال
۱۹۷۳
اکران
ترو
##وندی
لذا
##امان
پرندگان
##فران
فردوسی
نیروگاه
لن
زنجان
##ibut
##ایتد
کون
۱۹۷۸
اخذ
امپ
راد
۱۸۲
##ینژاد
##سیلوانیا
یورو
مذکور
www
##ومیت
جک
رول
ویکیپدیای
سرزمینهای
قیام
بتن
۱۹۸۳
ارومیه
رسما
##نم
##ok
۱۷۹
##چهای
معدن
میگفت
کارد
احترام
خودکار
نمای
مجه
تماشا
یادگیری
##سوتا
##ice
##۱۲
۱۹۶۸
قفق
تیت
دارویی
۱۳۹۴
مختص
۱۹۴۴
رع
گرجستان
کبک
##مدی
سینا
سفارت
رج
قاع
as
ترکیبات
وسیع
هلندی
contr
بیرونی
##انگیز
خشم
##ویتسه
encyclopedia
##سمه
داغ
old
بروج
##ومتی
بهصورت
تولی
حالیکه
هرک
##اقد
داریم
##ou
##پرداخت
میه
الوم
تکامل
میبرند
ستاد
##البا
وحشی
لشک
##پای
۱۹۷۲
گذراند
اطمینان
مینهسوتا
طرفداران
##حسن
##فیلد
ولتاژ
داک
۱۹۷۴
##igh
امتداد
بگ
##ایست
تراک
##دو
##لیان
جاذ
##کات
موقت
##انداز
هیر
##پایه
فرصت
مصاحبه
زبانی
##ودگی
نهایتا
هکتار
سرمربی
گردن
۱۳۹۳
tit
اسان
جماهیر
یونایتد
##عف
فراخ
قول
لیسانس
وص
##والی
شکن
زمینههای
بسکتبال
پرتغال
کوهستان
الاباما
مایکرو
12
خواستار
معلم
حرارتی
بزرگر
سلجو
گیتار
بازرگانی
۱۹۴۳
کتی
روزی
بوشهر
قدرتمند
گندم
سطحی
وقایع
شباهت
##ستا
کمبود
زیستی
چندان
گچ
ضخ
۱۳۸۹
تصویری
##ابین
چرخش
۱۹۷۵
تیل
پنسیلوانیا
تعلق
تپ
جانوران
مجسمه
##زرگ
##سار
کیت
میلیمتر
contribut
##یمن
میامد
شیعیان
اگاه
مواردی
حذفی
##نوشت
کنسرت
امارات
حوادث
انداخت
اسکندر
حقیقی
کاتولیک
یاری
خورشیدگرفتگی
کشتار
##فیه
تسلیم
برادران
قضیه
کنسول
پارس
##ضان
فرانس
قربانی
ارتقا
##گیلویه
کوی
معتقدند
گار
contributors
##سافت
اینترنتی
ساحلی
تعادل
ترور
##کولی
۱۹۷۷
اسلو
اندام
کهگیلویه
چندی
خانههای
جلوی
رادیویی
میگذارد
اکسیژن
منشا
ادام
پیروان
۱۳۹۱
##ذر
تند
لیک
##رانی
مدیره
##باس
داروهای
مشتری
سیاستهای
جدایی
فشر
۱۹۲۰
se
##گویی
سوء
ایام
ترکمن
اکسید
##یهای
تشویق
توده
##چشمه
انجامید
title
شیم
##یب
یکپار
مورخ
استراتژی
حروف
اردشیر
روزگار
عفونت
۱۳۹۷
۱۹۴۰
مکانیکی
امواج
شهروندان
دویست
وسعت
سایه
اندونزی
شکا
غالبا
اندیش
##یدگی
##ne
برون
وکیل
۱۹۷۱
اوکراین
مجازی
##گونگی
مقصد
ليون
پیت
بهطوریکه
غیرقابل
تعطیل
ریو
رویکرد
بدنه
استخدام
##بازی
مزار
##وها
##الیسم
اتومبیل
زنگ
صندوق
دربر
ساک
خوردن
قضایی
ویرجینیا
ناد
کمون
فال
لز
معیار
اعراب
فاقد
نوبل
چن
استدلال
دکترای
مرزهای
هاشمی
جس
##کشان
پیک
تدریج
میخورد
بزرگراه
انگاه
تحقیقاتی
توکیو
دفاعی
پروتکل
ضروری
نامش
۱۹۶۹
دایره
خودشان
داو
##زاب
##توای
۸۱
باره
دفن
خودروی
##استی
رن
کینگ
اشنایی
بدی
میری
##سواری
سکن
گوشه
موافقت
تایل
بیبی
غیرم
چگ
oldid
هشتمین
مسیحیت
صرب
جانبی
موضوعات
چگونگی
##لاط
روانشناسی
##ویک
بهشت
پستان
انی
مراقبت
کرسی
بویر
اصلاحات
اواسط
روزنامهنگار
رسمیت
کاپیت
نباشد
##فون
زرتشتی
خودم
فرانسیس
##tion
۱۹۳۰
نمک
پیشتر
۱۹۶۴
مرتضی
شاهنامه
ریاض
هالی
مطلوب
کوانت
شاگردان
فشرده
##ینگن
شاپور
access
گذاری
pr
اعظم
محیطی
حبی
##ازن
شوهر
فنلاند
شیلی
یازده
درونی
شاعران
شمشیر
قبیله
ترد
ارج
کوچه
عوار
مرزی
خالص
##صاری
##یاط
##راسی
باشگاههای
سنی
انگشت
برتری
الکترون
##ah
##ton
افتاب
مینامند
##ain
قدم
ملیاش
اژانس
مراج
زبانش
۱۲۷
##شدن
پرسپ
بازمیگردد
##الیز
۱۹۶۷
رسانههای
علايم
رنگی
##خاص
##داول
now
هرات
اذربایجانی
##امله
ولس
کاوش
هاف
اثرات
مبلغ
متق
##نشینی
گارد
##خل
پیادهسازی
لويیس
بینی
جوی
طاق
سون
##نجان
وظایف
مرات
نجف
par
شیب
هش
سرور
##ادها
امان
کیه
##نیک
اخراج
##زون
تلفظ
تها
گمان
هزینههای
علیرضا
ساختمانی
##ive
##ate
##سلطنه
برداری
نهمین
ویرایش
تفنگ
نظم
مشروطه
بدهد
رسیدند
صحن
##ردگی
بخشهایی
ترجی
چوبی
##گرای
مرتبه
وسیعی
فرایندهای
##ob
مغزی
مبارز
##پو
یافتند
نسخههای
شلیک
کرم
تجاوز
بازیگرانی
وات
##ud
علیرغم
مجری
منصور
دیسک
##کنندگی
گلو
حمید
امل
میلان
بینالملل
کارگر
##iki
معلوم
لور
##عل
دهی
الگو
حلق
کمربند
نایب
معروفترین
جعبه
فرس
شواهد
##زبان
سازمانی
قومی
##املی
تنهایی
عالم
اتوب
میزند
تکیه
ساری
##ضل
شیرازی
کالا
فلسفی
سلولی
دانشجو
ساوت
بره
بیمه
##ریا
زیبای
فرکانس
te
ماهواره
##افرین
اسمیت
be
بپرداز
##رنگ
مجازات
ویژهای
موض
شگفت
انتقام
مکانیک
تاجیکستان
هرمزگان
لم
پولی
##فین
۱۹۴۱
میخواند
فون
تفکر
ابزارهای
هندوستان
پراکنده
زیارت
شفاف
جری
تحمل
##ستها
تولیدی
اخبار
اشکانیان
قطار
ایلام
کارکنان
قفقاز
##ts
##ستهای
محرم
بازرگان
##qu
الد
accessed
شهرستانهای
مخابر
دستیابی
سکه
##خانهای
##وسا
##سوم
##میه
پرویز
گوگل
لغت
##ارم
چرخه
دیپلم
تسلط
جاری
مهاجم
##گذاران
##زاس
##یتسه
نسبی
موسوی
مونی
برنج
##امیک
##اغ
##ge
میخواست
##اسری
جداگانه
##مجمو
کنی
۱۳۸۷
تنوع
ایس
درحالی
کرک
##باران
##افزاری
هام
##وتن
sc
بلاف
##کیان
احمدینژاد
پوشیده
مخالفان
رساله
عقل
معانی
ترش
مي
ابری
ماریا
##اهو
خلافت
##نوع
تبلیغات
دکتری
رومانی
ردهبندی
مایکروسافت
##باشد
نگار
##وتری
باخ
وف
دف
میماند
یهود
کبیر
منی
جمشید
انجایی
##۶۰
استانبول
ضلع
کنت
بازتاب
##گوش
فرمانروایی
##اموز
ویرجینی
##یدهاست
قاسم
شاد
دوستی
دخالت
##ادات
عموم
کشتن
لیبر
عوارض
استحکام
ad
شطر
نانو
شعبه
سوره
۶۰۰
##اندا
نیازمند
اسطور
##لیلی
##طل
جنگنده
۱۹۴۲
منظم
##کون
وایت
##گرایان
مریم
قالی
سنگهای
مهار
گاهشماری
منحصر
##ویج
##افی
فکری
پیا
مهمان
کلمات
##گويه
بالاخ
حسینی
ازای
##لاوی
غنی
اوردند
نیکل
سرچشمه
کارایی
نگهبان
سرود
تراکم
ساختمانهای
مجهز
##ارو
زنجیر
مقدماتی
مخلوط
جوامع
##خور
بازاری
##ینگتون
ترین
تولیدکننده
فاطمه
بستر
دانی
##سیری
شدهبود
هوشمند
ظاهرا
مفاهیم
همد
##هایم
فای
ارگ
تنش
عدالت
ماندهاست
۱۹۴۸
چل
بیز
بازیها
بیس
ابداع
میت
کهکشان
متداول
11
عملیاتی
##بههای
فرش
نشری
حکومتی
##۱۵
ایووا
خبرگزاری
##se
میدانست
منش
فت
##۴۰
جمهور
سرپرستی
##قد
سوراخ
دیا
پرفرو
مسیحیان
شاگرد
##مندی
برساند
شکلی
انفجار
##فاری
##۳۰
##ast
ویرجینیای
##لیا
محتوای
زرین
سح
استعد
۱۳۸۶
##پذیرد
صوتی
ژر
بتوانند
##سنگی
میپرداخت
کتب
مجتم
اشپ
پادشاهان
nowiki
مترجم
نژ
منطقی
ضریب
##عباس
ولسوالی
معامله
۲۵۰
رفع
##گرو
پرسپولیس
##اسف
رنگهای
تات
خزر
##اوم
##up
شایع
##۱۸
دانه
کمان
۰۰
اشتراک
مطالب
خلبان
دیو
مرجع
جادو
so
استث
تعقیب
توری
دوب
انجلس
چنانکه
واقعه
##اختی
اجباری
مراکش
ايت
مند
محبوبیت
##ندهای
۱۹۶۳
انبار
cant
دستگیری
ir
شتاب
##یتو
##کیک
بویراحمد
ماتریس
بهدست
رف
ضعف
میگذرد
مدیران
استادان
۱۹۶۶
پیدایش
متال
تحریم
ذوب
دشوار
یوتی
تسخیر
گرا
شکلگیری
##هایو
احزاب
##الین
تحصیلی
حرفه
پایی
تزریق
##لاو
ناه
رسانه
la
چمن
گست
سوسیالیستی
مجتمع
##یان
##انزاس
اوری
۱۹۶۲
دهان
هادی
##ادور
تظاهرات
کتیبه
18
قزاق
صالح
فیلتر
شارل
پارامتر
دختری
الودگی
لغو
زیرزمین
نتوانست
هیدروژن
لوب
خاکستری
مولف
اثاری
موجودات
زخمی
ساو
کوک
معمار
شناگر
کرا
نشود
##بایی
ازمایشگاه
##یتبار
یان
اعضا
شطرنج
##وتای
پیروی
##راحت
چارچوب
بلافاصله
۱۲۵
همینطور
تندی
جیر
کیش
زیرمجمو
مزر
مصالح
ارکانزاس
لحظه
محققان
بدر
طلب
میشدهاست
خواهرخوانده
اود
دوک
ارمنیان
نوی
سواح
بعنوان
کویت
##کلین
یاس
۸۰۰
۱۷۸
##۱۴
رونق
افسانه
مانی
۱۹۶۵
وحدت
##سام
بگیرند
ناصرالدین
خدایان
مشهورترین
ایندیانا
قایق
##صلی
برکن
ایالتی
هزاران
##وهان
۱۹۱۸
صوفی
پروانه
اریز
راههای
فاک
استادی
اوهایو
سراسری
مکمل
خراب
سمی
۱۰۰۰
##ایس
پژوهشهای
پانصد
##خانی
canton
میرسید
سیصد
انا
روشی
سرت
مصوب
اشتغال
تعمیر
۱۱۰
فراز
کوروش
انیمیشن
رفتند
مناسبی
فهم
منتهی
صفحات
##گذارند
کوهی
##جیه
هیپ
مشتق
حساس
نیوجر
۱۳۸۴
اوراق
ازبک
میشی
اورش
میتوانست
ap
گرما
##العمل
جنگلی
##کوک
اجتماع
خرماباد
##بردار
شمس
پیانو
بازگرد
پتان
جواد
##گوی
۱۹۵۶
ادعای
##ina
طرحهای
اعتراضات
##ینش
نفس
الیاژ
تحق
نابودی
وود
https
##قراری
##ord
متمای
ملاح
کاربری
مرده
دقیقا
پانزده
جورجیا
اراک
کاشی
همسایه
##مانند
تبار
دوچرخهسواری
لویی
راز
ازار
اردن
حاکمیت
##۱۶
دهستانی
۱۷۷
##دهد
ایه
بلک
هماهنگ
واج
اشخاص
مباح
اندازی
##الملک
کریس
تول
هاید
گوی
براون
فان
##۱۷
۱۹۵۸
سواحل
راستای
درج
نوزاد
##لوک
##ختن
شکسته
نیوجرسی
زمینشناسی
گیری
رعایت
##کره
میگردند
سهر
دیواره
##کوب
##سکوپ
حبس
##اریان
مینمود
##te
گرمی
خطرناک
##انای
دروغ
on
ثروت
اعم
تومان
بگذ
حرکات
سیت
محض
بناهای
منچستر
نفره
تلقی
اسیر
تاثیرگذار
۱۹۳۹
##اعد
##ich
جالب
رقابتهای
عراقی
مکانهای
مادرید
ویکتوریا
ستارگان
##مید
مقبره
قهوهای
هماهنگی
ایزد
خاصیت
استیون
صدور
کشیدن
موسسات
میشیگان
اجزای
نداشتند
ماساچ
اکل
ویتنام
محرک
نوب
تهیهکنندگی
شکنجه
##ردن
نمایشی
اورشلیم
طنز
تیپ
##ans
غالب
ماساچوست
##ایلی
استانه
سنای
برف
الگوی
زره
شین
امدند
علمیه
نوروز
اصفهانی
جلس
ارتور
دستهبندی
##رضا
هرگونه
خورده
رگ
##شع
پردازنده
سازماندهی
۱۶۰
سیزده
جمعیتی
##مود
سیما
اریزونا
الفا
روزه
مقداری
ادرس
تجمع
##انشان
عمارت
موازی
سرنوشت
پرتو
جنین
##لندی
۱۹۶۱
##وههای
##غالی
زرا
محاک
اعزام
ویديو
تخیلی
دایر
انات
توانسته
حامل
کاو
چنگ
دانشنامه
اسلحه
موتورهای
وع
اوب
اختصاصی
سازهای
همت
مجاور
پاش
##اردی
ma
کندی
جزيیات
نمودهاست
شکر
شورشی
انرا
رسم
محاسبات
##ire
بزرگسال
باستانشناسی
پرک
گلوله
معکوس
۱۲۶
تابش
نقشهای
سمف
معاونت
ترجیح
پسران
##اورند
##تاکی
ویران
واپ
ژرف
افریقایی
##یای
هیچگاه
##وفر
تعامل
##فو
##ضاع
میرساند
پروژههای
##سلی
یکپارچه
اساط
##قانونی
##ابانی
کانزاس
خلاصه
حوزههای
خطاب
پژوهشگران
نوجوانان
عز
##لد
بهداشتی
بازنشسته
##یشان
مجید
اثری
لود
استقرار
ژنتیکی
معنا
قبایل
اراضی
فریدون
شنی
الک
##دهایی
مراجعه
##رایی
رفتهاست
پرداختند
ناپل
##own
##ستن
##یافت
هواد
دايمی
##ریر
توالی
کلیدی
سات
##ربزرگ
فرماندار
صخ
یونسکو
مادی
##فیق
پایینتر
نبوده
لام
##سیان
بدل
علاقهمند
درب
حز
راهنمایی
مجاهد
حرم
##ارها
ریخته
مدی
اوضاع
نهض
خنک
عظ
غیرقانونی
تلاشهای
##اسه
تیمی
ایمان
اسد
##امیه
دورهای
سويدی
زادگاه
بهم
صرفا
##ولن
افکار
مطبو
هیتلر
##کوپ
مالزی
رسیدگی
داگ
##ساله
متمایز
بخصوص
##iz
وصل
بایرن
انزیم
بنیانگذاری
فلزات
داوط
قراردادی
برقراری
##ادش
fr
استونی
خودرویی
فاض
##اسازی
شیش
گناه
new
پیشگیری
توانستند
تاز
##ویژه
افشار
میزوری
مزرعه
کوس
ابراه
##چال
##نیز
والدین
رایانهای
وه
رزمی
ذهنی
اشتی
منافع
چراغ
مکر
کاک
##ضافی
زاه
15
بلور
۱۹۵۴
رش
سامان
گربه
##پال
کنتاکی
##ong
اضافی
کارافرین
خصوصیات
رقیب
##سانان
بابا
یازدهم
نیازهای
جذاب
تعلیم
الیز
نگرانی
قلی
##مرد
منتقد
بیلی
نمایان
سپری
روحالله
طلای
استودیو
##یله
طبر
شاخههای
بلوک
قند
چربی
##میلی
##مایند
##پیم
۱۹۳۶
فرنگی
هوی
##ae
##جویی
اشیاء
لیور
پنجره
خشکی
ریت
##شترین
##ابادی
ساختاری
سپه
ترانههای
نرسی
جمهوریخواه
##ابن
عقاید
توقف
##حد
انلاین
ابراز
بهویژه
شنبه
##روس
اکشن
ارتفاعات
اتر
کب
شاهین
سمن
##امید
۱۹۵۹
پمپ
تث
دک
یحی
بارسل
تقلید
پیرو
ویسکان
فرقه
##گونی
##کردن
دموکراتیک
شیکا
##رگ
##چیان
وسطی
الومینی
##ug
نخل
##وکی
رسانهها
قايم
متروی
##۸۰
##خا
بهايی
فیبر
بادی
اتوبوس
ریک
طباط
مطبوعات
مثلث
فجر
##کب
##۲۴
معنوی
برگزید
برپا
۱۹۴۷
۷۰۰
منف
ماهیت
کوانتومی
فرای
اسکن
۱۹۵۷
فقیه
برش
##سنگ
پروفس
موقع
صربستان
نیمی
مرکب
انتخاباتی
پیگیری
خواهان
طرفدار
کیر
ویسکانسین
##نع
متنا
##۲۵
اندک
روایات
افزود
شرک
##نشاهی
تفکیک
عارف
احتمالی
ایروان
کابینه
کاندید
ab
گفتهاست
۱۹۵۲
وحشت
##ورند
کمترین
۱۹۴۶
mon
##جانی
شیطان
البرز
##اهما
##تاباد
تسه
##چن
اسکی
شاهان
۱۹۵۳
حساسی
نسب
بوم
اموال
##چسب
میبایست
##جمله
شاهنشاهی
سیستمعامل
اماری
اروپای
قضا
تلفات
پیوستن
جنبه
مادری
جوزف
نوشتهاست
لهجه
فاکتور
##ولان
ژاک
اورت
حیدر
##الس
بردند
شیکاگو
کارشناسان
اوردهاست
کاناد
گازی
پایداری
##ير
بردار
##اهره
بماند
##کراسی
##بورد
مینو
خودمخت
چهارصد
ثروتمند
خوانندگان
##يل
درستی
قاعده
قوه
بوسی
ایتالله
نامید
فساد
وو
فرعی
حدیث
استون
شاهی
صدها
فرن
##کنی
سازه
پتانسیل
##ph
تورم
مدارک
۱۹۱۹
چگالی
حش
##اسو
مخزن
تخلیه
بلندی
ریسک
مصری
رایگان
gr
جولی
##یشی
دفع
رویدادهای
شناختی
فرهاد
یکمین
انبوه
هرم
تاریک
۱۳۸۰
##بریج
he
گردیدهاست
مباحث
خن
معتر
گرگان
خواسته
پروفسور
بخت
##وکا
ارایه
عثمان
مناسبت
۱۹۵۵
قن
متحرک
هشدار
##ستد
مکه
##جوانی
اعطا
حریف
مواقع
ملقب
دبی
شرایطی
##اسپ
##دالله
سانس
air
##الیست
یکبار
##درت
۱۴۰
مشتریان
نهاده
##وشیمی
باریک
ايتلاف
##مانه
انتر
##زیست
##ومتر
۱۳۹۸
##ss
باخت
شکایت
##میز
##مره
اهنگهای
##۱۱
مختصات
نهادهای
##خواهی
باکو
جانور
اکر
##ودو
کرج
##نتو
ماجرای
بیزانس
هواداران
رطوب
بیابان
خانوادهای
##شایی
##ver
##اندو
تیمور
۱۹۴۹
لط
الکل
##ابتی
البرت
گلد
کاشان
استعم
گرداوری
۱۹۱۷
خوی
مخدر
مشخصات
##برو
کاراک
ارایش
امکانپذیر
مصدق
برانگی
مراد
پزشکان
خلاق
ناي
##روژن
##دیا
پایهگذاری
##خاری
اردوگاه
نهضت
سفارش
##ومند
الو
##باخ
الیزابت
ژیمن
شرکتها
جنگلهای
یحیی
هوان
پاییز
جمال
دولتهای
صادرات
فانت
##کاران
اضطر
فراتر
##our
عجیب
داکوتای
یانگ
رقابتها
فورد
##يینی
غذای
چسب
چهارده
##چیک
معادن
جابجایی
سکنه
مداوم
سلطه
##سف
اپل
تصمیمگیری
##ary
تشی
جون
##۶۶
at
رفس
زندانیان
بون
خودداری
اطلس
اعل
ییل
لیم
##سنجی
مولکولی
##عهای
دانستهاند
جونز
مینی
کامپیوتری
ex
ملتهای
استعفا
مخصوصا
##وزوم
بحرین
قشلاق
برگرد
کشتیگیر
لهستانی
پالایش
گرجی
پژوهشگر
راننده
استوار
##سکا
بخو
زه
اسیاب
تونس
جسد
محمدی
تیراندازی
##فتی
مستقیما
سادگی
شانزدهم
##جمعیت
##نها
الته
سیال
##نهار
نقشی
ویتامین
نیکول
میبیند
تحسین
##ودور
فیلیپین
بیبیسی
اسامی
مترو
نقض
۱۷۰
مفصل
سپاهیان
ریم
طرز
##جین
انکار
الان
مارش
##گرهای
اتن
ترکان
مستع
۱۹۳۸
##رق
توت
ماموران
##ue
خامنهای
پورنو
لول
اشور
لیزر
گیم
me
کارش
فوقالع
لوت
##رايی
##حق
##ies
##۲۲
اقلیت
راین
##ماری
اریک
##اردو
محاکمه
عبری
نرمافزاری
قهوه
کاپیتان
تطبی
ني
##بهای
##پاشی
بیانی
شماری
ارشاد
هاست
متنوع
ساند
یادداشت
تقاضای
اسماعی
شوش
گوت
قبرستان
لان
جهاد
##چو
گرانش
پیشگ
تقی
عمان
مجزا
##شکده
قاچ
کنف
گلهای
##پین
لوک
خرس
نوجوانی
خلال
مقررات
ریاضیدان
دوری
بالاخره
قوای
۱۳۸۳
تبادل
عملا
دستیار
نمیکنند
مابین
میکرده
مساوی
روشنف
پوسته
##اتس
دستورالعمل
واکنشهای
ساع
##سناک
سرپرست
لبه
درخشان
بولی
الوده
شورا
عبدالرح
زور
عال
دنده
دايم
غز
گردان
پلاس
باله
ستایش
ناگه
رطوبت
طوف
بدنی
ورق
تقسیمبندی
رضایت
پیچیدگی
طاهر
قطعی
##وانا
ترسناک
سعد
ارای
جناح
کاظم
فروشگاه
##ادن
ممتنع
لیورپول
لیبی
دیوارهای
ريال
ببین
##فهای
##ومان
تاون
تاخیر
##اریو
مکعب
کانادایی
لذت
##سیسی
مینمایند
فیزیکدان
چالش
##۳۵
تونی
گوار
انار
اینه
رسول
##ونهای
امضای
عمودی
۱۳۵۸
چهرههای
میشده
یعق
بنیادی
##گرام
حالا
احساسات
##ct
نمید
میبین
ترویج
۱۰۹
زیرزمینی
car
پرسش
##خد
روبر
##پیوند
ii
مدینه
##گیرد
تفری
حوض
زنجیره
##انورد
تضمین
همای
##وسن
تعهد
عسل
##کانی
d8
ترافی
پراک
سازد
مطب
قطبی
تقسیمات
فرماندهان
کارکرد
دوازدهم
شکم
اختصار
دامن
پهن
شعار
##ینگز
##کلا
##مانده
حیاط
ادب
عزیز
اپر
توط
نکرده
لانگ
##امده
غیرنظ
فاضل
##ff
۱۳۸۲
اشراف
##فلد
دانشامو
بارت
پاسداران
کنستان
##باغ
ذیل
ایند
##راض
حکیم
مرگش
مقدمه
راند
موم
##سوس
کوهن
web
##۷۰
##قاسم
هرچه
افتخارات
پله
میاورند
استانداردهای
##سبورگ
خوراکی
اکلاهما
ماژ
هواپیماهای
کوبا
bo
جانسون
فرهنگستان
۱۹۳۳
رمانتیک
مذاکره
هلی
تایلند
دمشق
مونیخ
14
جانی
##جویان
##az
پود
درم
پارچه
مجاهدین
##لاغ
##اوردهای
۱۰۵
دانشجوی
تکه
داوری
سانتیگراد
مود
16
کای
الفرد
دشمنان
ایدي
فتحعلی
##گشت
سازگار
اینچ
۱۲۴
##per
هرد
نوه
وج
##لاحی
تایمز
وابستگی
دبلیو
مذاکرات
##ly
هندسه
۱۳۵۰
الفبای
بازارهای
میدارد
بلندترین
تکنیکهای
نمیر
نمودار
ضخامت
تحریر
انداز
قاچاق
کپی
۰۴
##gr
۱۹۳۷
مبدل
نحوی
##پیر
۱۹۳۵
ادیان
اوم
##انیوم
پرش
هفتصد
۱۹۵۱
اختلالات
اقلیم
روسها
ناگهانی
##تیس
مصاحب
بوسیله
حفاری
خونی
##نگاران
خانوادههای
پیشروی
مبدا
دیدی
##پشت
جنایت
فعالان
##خدا
تاریخچه
صوم
عهدهدار
چنانچه
صی
##ta
ed
لاله
منوچ
کمیت
نفع
براد
زیستگاه
سج
کهنه
پرتغالی
کوز
سرشناس
##وکو
اهنگسازی
نرمافزارهای
بیانیه
انفر
جایگزینی
حامی
##ارتمان
نقص
##گرمی
اسن
کلان
مطلب
صفویه
میپردازند
##ier
ثبات
روده
کلام
نصفال
##لینگ
##ویو
##پوست
میکر
##غلی
رسوب
نورد
مهاجران
منحنی
بروجرد
منوچهر
پت
۰۵
ماهیچه
اعتراف
کامپایل
##اکان
سوپ
مگر
سويی
##۳۸
دخترش
پودر
دموکراسی
طباطبایی
##يول
##مدت
بازاریابی
##اورت
نواخت
۱۷۵
ابتلا
مشخصی
درهم
علمای
زندگین
جنبههای
##زیکو
احمدی
##und
۱۳۶۰
حرکتی
مناظ
موب
##پرسی
حضرت
بنت
لاس
هجوم
ونز
کورت
##end
والتر
دامداری
##رسانی
معص
ارامش
ابادان
حسب
##طهای
##الها
ارباب
تسهیل
کاترین
تنیس
غارت
هایی
استین
##ورها
خاموش
##رخ
جماعت
غلظت
خاتمه
##اسمی
متوالی
هانس
اصالت
##بالله
نازک
##روی
##بق
تنسی
استیو
##land
کويین
نشریات
سراب
حصار
مقدونی
تقریبی
تندیس
##سایت
گواه
min
کوین
##فول
ناشن
نصفالنهار
۱۹۳۴
۱۳۸۱
افزون
##ens
حساسیت
ناق
فقر
مقاوم
بقایای
۱۱۹
۱۹۲۹
اخیرا
انفرادی
##بستگی
کرت
متوسطه
کلرادو
بلی
اهر
عددی
##گراف
اپرا
سعدی
مریلند
##هرو
گزارشهای
##لانی
##ظمی
همایش
پارا
چارت
##no
##aw
عصب
اندی
تکل
نشانههای
سنا
يی
##بیا
ازبکستان
##نون
##ملک
اوک
فرق
گرافیک
املاک
دادگ
انتخابی
خانوادهاش
col
ششصد
رکاب
برایش
##ایری
کارا
داروی
فضل
چندانی
رودبار
۱۳۷۰
الیس
عاشقانه
بهشتی
##بورن
بزرگسالان
تثبیت
us
لینو
لوازم
زرتشت
بص
منق
سروده
هشتصد
گلوب
##وجود
سرنگ
ارزان
محافظه
تروریستی
خاکی
بیض
فعل
تنگه
عده
غی
##ish
مخرو
درامده
هافبک
لوس
##۲۷
میشل
سبزی
بساز
##وون
سمنان
گا
##۳۶
عروس
سهگانه
تولیدات
##الیه
##اخان
منسوب
انگور
۱۰۴
##ack
کریستین
صلاحیت
##رکشی
کتابها
##ويلا
فقیر
##پردازی
##man
جهش
inter
الومینیوم
۰۹
شبانه
فلسطینی
مرکزیت
##ويید
بوسنی
سرتاسر
ماندن
دانشجویی
حید
##اندی
مجاورت
گذار
معتدل
کوشش
سارا
##کاک
داع
باتری
فرزندش
انتونیو
##۳۴
محافظ
دادگستری
ریس
فروپاشی
فضاهای
پیست
حالتی
##باع
استناد
نیازی
صندلی
##دون
##طاف
##ینهای
تهاجم
##وخ
##سیلی
متاسف
تخصص
۱۹۳۲
##co
۱۱۵
قارچ
تله
گوسف
باقر
بپردازد
##ala
##۲۶
۱۱۸
##زههای
ابوالحسن
سادات
##نند
راجر
همسای
##۲۸
رستوران
اپی
میپذیرد
##ille
زای
هستیم
مهاج
##گزار
خاتمی
ابریشم
##ازان
عقاب
احتی
منتخ
انست
##ial
ویلیامز
محروم
طبرستان
کمکهای
۱۹۱۴
میدانی
رمضان
شانزده
طوای
##منی
ناخال
محکم
ساختارهای
##کسل
مدتها
##نیف
##yn
تاریکی
مهد
قزاقستان
الز
نهنگ
تاثیرات
پلیمر
عقبنشینی
اساطیر
نداد
##ستمی
روانه
##ure
بالینی
الیاف
سدیم
طرفین
کرواسی
اندرو
عبد
تاسیسات
تزيین
هات
سیزدهم
اسپی
افقی
یادبود
خصوصا
اختلافات
هالیوود
صاف
سندرم
گس
طرفی
هاین
کارگاه
کودتای
ببرد
استیل
کوچکترین
برداشته
زاگر
طلاق
حکمت
عازم
لری
##زبور
پلیاست
جانشینی
کارمند
اثارش
رابین
قور
##پتون
پیشینه
مراتب
طن
افسران
##۲۹
##الن
سخنگ
چشماند
دهکده
##oh
##ys
میدانستند
۱۳۷۶
یور
##شتاین
##یتس
دهها
لرد
پلان
ازمایشهای
تزی
##tm
نیوز
##اشناسی
نظرات
نورث
۱۹۲۱
نوسان
پورنوگرافی
##۳۷
دیدنی
cr
هندسی
تقدیر
زهرا
بارز
رین
لنین
##ee
##فسی
زار
عامه
##گانهای
۱۹۱۵
وبسایت
##۳۹
جلسات
عادل
##باد
۱۳۷۵
۰۷
##ذه
##یران
برهم
متفق
مسافت
شعری
شهردار
موریس
اسکل
ترامپ
کالاهای
۱۳۷۹
رتبهبندی
##اطی
بط
رصد
قاهره
معادلات
۰۸
لایههای
ارنست
نواوری
رحیم
##محمد
##شاف
##ساوی
میشناس
##احتی
زبانها
خیالی
افتخاری
مناطقی
پیل
مصاد
جغرافیای
پخت
هرز
ترانس
قواع
ماست
##تایی
ترسیم
۱۰۷
برابری
مرطوب
##شناختی
مستعم
خیانت
لینوکس
دشتی
قاتل
##۲۱
##ith
استانی
عید
لنز
بازماند
پارتی
استعداد
##ft
##اشاه
اغازین
سردبیر
مسيولان
داوطلب
میفر
##اتوری
زندگ
بیک
کنش
دارال
تیلور
کسر
اورگن
جابه
دارم
۱۱۴
بیتی
غول
پوند
دوز
ناص
زدند
دهلی
انگیزه
حشره
چشمگیری
فد
چو
بوي
139
ریه
روشنایی
شبیهسازی
هورمون
هارت
سیکل
##ترا
انعطاف
توجیه
ارامی
##پزشکی
نمیشوند
ختم
یوش
الکتروم
17
جاد
ذره
ونیز
بروس
##یتون
داوود
پند
ساب
##وندهای
کلم
تکثیر
##iss
کله
فرشته
میزبانی
نبودند
متناسب
هاپ
##ach
تمایز
مزبور
##سایی
مزایای
سراغ
معاهده
علامه
گریخت
ابانبار
سپرد
فراخوان
كه
مزد
##ond
فرز
جنایی
میرسند
شعاع
تلف
دانشگاهها
##روح
ماههای
ربی
ابوالقاسم
ثان
صلیب
##شای
مرسوم
۱۱۷
۱۹۳۱
شکاف
##گاس
کیسه
۱۹۲۸
داوران
فوقالعاده
زغال
بیانگر
گیرند
زخم
نهصد
کشتیهای
سمفونی
اداب
رحم
جبران
خشن
دهههای
کشورهایی
خودمختار
میسیسی
##lar
روحی
طوایف
جوز
حشر
قوچ
برقی
##ادله
۱۳۷۸
پلیاستیشن
ge
##ادیم
مظفر
محص
مراجع
جت
##ادگان
سوخته
هندو
fl
۰۶
میسیسیپی
ro
##ویسی
گرمسیری
متاسفانه
##باسی
دیرین
انتظامی
##مور
##ore
۱۰۸
مفهومی
ورد
##ath
الاسکا
موت
احکام
قدس
##عکس
تالاب
فه
برت
عمران
ابیاری
بارش
بسط
رساندن
یورش
نیوزی
ود
کنوان
ترافیک
لوح
##ولوژیکی
خوراک
##نبرگ
##اریه
عروسی
لامپ
گشته
##هزار
سفال
ناوگان
جغراف
تانک
تفریحی
##فشان
غذاهای
##کینز
جیمی
نفی
خطا
##یترانه
کراس
بازه
سواد
##پیچ
۱۷۶
بهنام
بادام
هستی
تغییراتی
تقاضا
وند
##ka
مدیترانه
رسان
گلدن
ناچار
##نمایی
مشرق
کلسیم
سلجوقیان
گویا
۱۹۲۴
##روب
بایستی
فرضیه
میگفتند
داعش
کنوانسیون
صفی
##وکار
رمانی
اصیل
بلوار
طبقات
سانتا
استراحت
##اپی
نمودن
##الوگ
##رداد
شخصیتی
زودی
##گیرنده
سوگ
##سانهای
سامانههای
بقعه
واتر
روت
ایرج
سرهنگ
زنبور
ساکنین
زاهدان
باشیم
##وسیله
رباط
شهرکی
فروخته
سیمای
فراری
شهاب
پهنای
غلبه
خمیر
کشی
گواهی
تخل
##خواهند
تابلو
##گارت
استار
توربین
no
سزار
فخر
##ma
ایات
بوکس
کرهای
تبریزی
نمیدهد
اتفاقات
کلاسهای
##ورز
##ویض
##زیانا
تصحیح
ویلسون
درسی
##اییها
کویر
هیچیک
##استین
اکسفورد
ser
پلت
الماس
ممنو
گفتار
گروهها
شیوههای
عشایر
اسرايی
مزیت
برترین
سیف
رایت
##يوپ
##age
هون
##طانی
##دیس
بنز
##ستیک
زیستشناسی
تبلیغاتی
دروس
##ویژن
dna
ریخت
۱۹۱۲
##غد
ریزش
فردریک
##طح
##ریشی
نامزدی
اکتشاف
##حاق
حکایت
۱۵۹
زمستانی
روحانیون
نبراسکا
شیل
##لک
راجع
ارتقاء
##وات
نشانگر
صرفه
##lin
نفری
دگرگونی
##پان
ازجمله
##ect
سنجش
ag
پوت
درختی
زیرمجموعه
##اوا
خبرنگار
کلارک
##کتریک
پردیس
##انتو
wh
##رال
##یاری
الس
گرمایی
##دشت
بابی
مرتفع
میریزد
عکاس
انجیل
فضاپیم
همایون
##ردام
نگاشت
##بوتر
اعصاب
##one
دوش
مسافران
مداخ
۱۳۵۹
غیرنظامی
##وارهای
جعفری
اندره
خنثی
پویا
نوش
خرده
فراموش
##ژو
نمونهای
موضع
زاک
خواهرخواندههای
کیا
##amp
بهینهسازی
مطبوع
جونی
فیش
اسارت
واض
پش
##طلب
رسانی
رفتاری
پلاستیک
اتفاقی
تروریسم
##سوزی
##باق
منه
##الیای
اقتباس
یعقوب
##فار
اولویت
مناز
##جمهوری
##قای
##خیز
ونزويلا
کارلوس
تونل
واپسین
##فتگی
گرایی
##دره
عرفان
nor
شانس
##بیاس
۱۰۶
منحص
نادرست
هدیه
تنک
گذاشتن
رفتارهای
فلات
علاق
##ass
اعتصاب
واژگان
شکوه
##اتان
##ینیک
##جب
بهخ
شال
##ةال
مشابهی
##ولوژیک
نمیتوانند
رانندگی
شادی
انالیز
##کلن
بابک
فات
ارمان
۱۹۲۵
##مکن
##بتی
ناشناخته
ايین
لاری
سرس
199
خاوری
وطن
##فاده
پاول
یکنو
کشم
مقیم
خانهها
کشیش
کلین
هفده
بارسلونا
کبوتر
##بلی
ناگهان
برمیگردد
کاشت
بانوان
۱۹۰۰
کنم
۱۳۵۶
ارزشمند
دانشاموخته
عایق
سلامتی
بکر
تعلی
ناشر
##ویگ
حوضه
تفر
سلولها
خوارزم
قواعد
اسرايیلی
خوزه
خاش
تعبیر
بحرانی
طالبان
لشکرکشی
##زبورگ
کوره
میکنم
##روت
توقی
چهارمحال
هاروارد
##واس
جسمی
طوفان
خلیل
کوری
##یع
ازمایشی
نژادی
اوان
مقالهای
هفدهم
منتخب
جنی
##۳۳
نگاشته
مشروط
پاشا
۱۷۴
ریاستجمهوری
نقاشیهای
شجاع
##au
##عام
گفتند
el
##کیم
فاکس
نادی
شدیدی
توه
مسیری
التهاب
توطيه
کمبریج
۱۳۷۷
##عال
مرمت
دوستانه
بارداری
im
##شتین
##اطه
۱۹۲۷
فورت
مرحوم
##هری
مسیرهای
۱۹۲۲
متفقین
##یلو
بوش
کاراکتر
پاره
کمین
نامدار
مجلات
مهره
برایان
یوتیسی
##تز
تنا
چغ
متقابل
غرق
وفات
##فورت
میتوانیم
دلا
یکشنبه
اتل
##مرانی
حامیان
پانزدهم
دوگانه
مجروح
شهریار
۱۹۲۳
جامعهشناسی
طعم
۱۳۶۸
دیویس
سنند
##uth
داگلاس
نواختن
شریک
رازی
##استر
شراب
پهلوان
فلو
##دگی
میس
۱۵۵
البانی
هوشنگ
لويیزیانا
یام
##انیت
زمانهای
ریور
حیاتی
جاسوسی
ژرفای
سوری
اسکند
##تره
کروز
حاي
نیوزیلند
کبد
##باش
##الان
کارگری
صومعه
گستره
اناتولی
مهران
هوم
انه
شاخهای
ماور
صفح
حاکی
طبری
باس
سالیانه
##دنده
شتر
گله
اصرار
سلاحهای
##قانی
ارسن
هیچک
منج
ماشینهای
نقلیه
یوگس
۱۳۴۰
زبانشناسی
بزن
##گوری
##ix
شناسی
برم
قضاوت
##صدی
رسانهای
تقدیم
##وریا
انجیسی
۱۴۹
کردم
گردو
##گلی
##انشهر
خوردگی
قربانیان
تازگی
براورده
##ساب
میگذارند
تران
۱۶۵
شیرینی
مسافربری
مارشال
قايل
قبرس
مغرب
مخابرات
دوشنبه
گرمای
بیگانه
مطم
چهاردهم
##rom
اتشفشان
گرافیکی
بیشینه
۱۵۷
گي
##کسید
##پایی
سرگرمی
تبعی
درگیریهای
صم
##۲۳
کمکی
تنفسی
نمیکرد
پدری
افسردگی
زیرساخت
گریز
##لال
سخنان
زاي
##اسانی
تذ
واری
مجل
##تها
##دود
پسری
فتو
##sp
باک
رمزنگاری
هوس
##اتین
۱۹۲۶
راحت
##ight
هاد
بیچ
بات
سیلی
میزد
استراتژیک
قمر
لاهی
کرانه
بازیابی
سلجوقی
اتلان
کیک
دونالد
نگرفت
##جمی
الات
لحظ
رضاشاه
جاذبههای
بگذارد
زام
قوس
##سانند
نکند
##يیک
سامويل
شمرده
خف
##پز
پرین
حکمرانی
امدهاند
گشتاور
ماگ
##ثه
##وندا
البومی
##سیو
رفاه
جنج
احاطه
سازند
منظومه
##الک
فرمانروای
cl
گینه
##ومک
مسم
۱۶۹
جداسازی
##نما
سکوت
فضانورد
خیریه
استعمار
##سهای
قلع
تشکیلات
حدودا
۱۹۱۶
بابت
##اقب
رزم
بتا
##جهای
بیلبورد
خواهیم
راهنمای
نعمت
سولف
۳۵۰
مشاوره
برکنار
وضو
اسات
##جند
##pt
۱۵۰۰
یی
پیشه
حدودی
۱۳۵۴
زابل
فز
بهوسیله
مقت
دنیل
چاق
بران
کریستی
باشید
##زادگان
نیکو
پدربزرگ
رید
برپایه
##هرانی
برنامهها
##عان
دیدگاههای
سنندج
##ثری
نیج
سرقت
نامز
اشرف
باغهای
لایحه
استودیویی
دزفول
بمباران
میتوانید
بهتری
مسو
پاتر
##بست
مغلوب
لفظ
روستاها
##امیکی
##ووو
تحقق
برخوردی
سیدنی
تحولات
هنرستان
بودایی
ماندگار
بنیانگذاران
باه
همانجا
مدیرعامل
اذری
مشتمل
comp
الکترومغ
تازهای
فلی
##کوت
##مونی
قرص
سنگاپور
کتیب
برچسب
خونریزی
نحو
تمیز
فریب
##ind
ناپدید
##iel
##قدر
##اریا
کودتا
سبکهای
۳۶۰
وعده
##ood
البومهای
مخف
پویان
##قوه
##وتوپ
خاست
زید
کپ
هستم
ملحق
ایستگاههای
##مزد
الپ
کمر
برگهای
داير
انقراض
بزند
بهادار
ارگانی
فیلمساز
بهرهگیری
واژههای
##ale
گفتهاند
تشدید
کنارهگیری
پرفروشترین
غو
راستا
رومیان
##حان
۱۶۷
اموزان
ساقه
##ley
بصری
دیت
زان
یزدی
##ارب
زیان
##ايیل
کنفدراسیون
##متری
محاسباتی
خدم
قصه
سبزوار
##وینی
میپوش
معن
تناس
میزنند
۱۶۴
۱۳۵۳
۹۰۰
گزارشی
میسازند
##ینها
گرام
##خانو
هیچکدام
سونی
اسقف
اصغر
تصنیف
##ica
گردشگران
##مول
##port
شکستن
دکترا
رپ
کربلا
قید
##ظی
اجسام
مربوطه
تورن
##بوتی
ساي
کج
##موت
۱۹۱۳
دبستان
فهرستی
اکثرا
فاج
ارث
تصدی
شناور
مکرر
##سرو
علیاباد
وزنه
بشری
ماجراهای
حبیب
گه
منحل
پلنگ
پرستاری
دستان
استری
ref
دیپلمات
man
لیل
##af
چهارشنبه
##افرینی
ذخیرهسازی
سنتر
۱۵۸
هاشم
اوبر
علف
عبدالع
ممتاز
بب
بانی
دپ
الخ
##نجانی
تماش
پیراهن
صحت
وحش
کنده
دادستان
مولکولهای
تصفیه
خیابانی
بندرعباس
بدهی
تاس
همبستگی
بیاید
پرستش
وادار
##وجه
##20
فراور
بانکی
بنگل
پايین
حشرات
کاف
##لاگ
۱۱۶
لید
بیاورد
توقیف
یال
##تاون
عقد
پیشنهادی
##لای
##نگری
رسوم
حسابداری
ناپليون
۱۳۷۲
##ock
ویکیپدیا
کیهان
گازهای
اقتصاددان
##ارض
دلخواه
پدیدار
زاگرس
یوگسلاوی
برز
##اهه
ابوع
ابزاری
اشوری
رسانده
نظامیان
چارلی
گذراندن
گشود
سازگاری
تصادف
##ville
اروگويه
مارول
مربیگری
##فشانی
مزارع
ریشههای
ندرت
واقعا
طولان
هجده
۱۳۶۷
##پند
##ثیری
اسمانی
سیگار
ضرورت
دانیل
رال
زع
ایرلاین
انهاست
##پرس
هاب
##ai
۱۹۰۵
فصلی
نیکی
ساختند
##فروشی
##یشگی
نوتر
بکشد
##تش
عبارتی
راهبرد
صخره
کارن
خیابانهای
سویی
##16
معده
##پذیرفت
بويینگ
مخفف
حسیناباد
ناظر
شیشهای
نین
اشکانی
داب
##فیا
پستانداران
دانههای
##توس
شرف
۱۳۵۵
دزدی
ژنو
##ینک
انری
متا
هجدهم
۱۹۱۱
تدارک
اوستا
اين
##ارید
کشش
نمیدان
داماد
هخامنشیان
تبعیض
##وگرافی
فرخ
مقص
##تیم
انصاری
qu
جاند
دستهای
##گاوا
گزینه
قریب
۱۳۲۰
بنگاه
لطف
یوتا
خواهرش
پوستی
فانتزی
لوم
اجزا
جاوا
ظریف
##pe
دهمین
تنفس
روشها
##لیمی
ابوب
##لن
##چنگ
رهایی
قوام
##پوستان
##ارههای
خیال
##ional
۱۳۶۹
الگوریتمهای
گسل
میمون
##سیه
اجتن
سحر
اماکن
ساختمانها
مورخان
حفره
تفت
##چیز
چراکه
عظیمی
پیشرو
کنستانتین
حب
##مق
##اجد
۱۳۷۳
۱۹۰۸
ماجراج
ترشح
cod
per
حول
گد
##اسل
افسانهای
عبارتاند
sm
##بها
##۳۲
سالگرد
تلسکوپ
خوانندگی
۱۳۷۴
نمیشد
کارها
عضلات
کاشانی
یوهان
دهیم
زمره
انحراف
##for
صحرایی
کریستال
ترکمنستان
ip
یورک
باختری
۱۶۸
انط
عاط
شیء
گوشی
##بعدی
جیرفت
شعله
مشکلاتی
##اهدات
هریک
اوپ
الا
تعویض
##ame
مخاطب
قشر
امب
##ite
##سبز
صلیبیون
پهلو
مستعار
بدو
۱۹۱۰
نیجریه
رادار
اجتناب
نوبت
ادرار
رویه
ظهر
محمدحسین
۱۳۵۲
ماسه
ادیب
دوام
حدس
سازمانها
نجفی
تردید
رینگ
بانکداری
##ide
خزانه
هرکدام
زنجیرهای
جراح
شناسان
ولادیم
راسل
میشن
افزودن
wiki
زیم
مییابند
محدودیتهای
مبارزات
ناسا
راف
کاد
##بدی
گوست
##خورد
برهان
دلاری
اساسا
خالد
میاند
باق
##art
تاجر
فیلمسازی
۱۴۵
نوشید
تیز
بستری
عناوین
والت
##اسلام
##یمه
پراگ
بههم
نوادگان
mo
##بیک
کرون
##ایشی
هیچگونه
پیاپی
دند
انزلی
کرن
متغیرهای
پلا
##یو
##اوات
تشریح
قفل
برخاست
لباسهای
شیمیدان
ویدی
علل
پشته
امتح
سودان
##ign
منتظر
خویشا
موزیکال
میلر
تکاهنگی
مسلم
##حلال
فاصل
گوان
راکتور
##ایشان
کبود
شست
مستم
نشانی
۱۵۴
پنبه
۱۳۷۱
##يا
امامی
سیلیک
ابوم
بسیج
##ork
نزدیکترین
##استیکی
غم
اشی
ناهم
##صب
داراست
استرالیایی
##سنت
##مس
پروس
اسفندی
25
اجاره
مردگان
سلمان
سخنگوی
بخشید
لیلی
##لسون
شنیدن
اسلاماباد
گوسفند
ابوبکر
کارمندان
اتشسوزی
۱۳۶۵
##ri
بهوجود
زنانه
اتشفشانی
گورد
پروان
فوقانی
برامد
سپید
نمونههایی
مصاحبهای
زاوی
بهبه
##کردهای
تلخ
##رسمی
۱۳۳۲
تخته
متاب
پایینی
##لسازی
##پیوندد
تساوی
پرجمعیت
پنجاب
موضوعی
اعتباری
واضح
##يید
اشعه
فیفا
##انسی
دیانای
سامسون
فریدری
ویا
استالین
اینک
##ویتس
عاملی
شغلی
فرضی
عمدهای
نشاندهنده
فناوریهای
صحنههای
غلامحسین
##ومکزیکو
دومی
استخر
ماکس
اسحاق
##گردی
کلود
گرفتار
هرب
هیجان
ویله
کروموزوم
تکلم
میله
##انشناسی
یافتهاند
لیتر
پارت
دوق
بینایی
##فیف
جلوه
۱۳۴۷
۱۳۴۲
سنین
##پورت
##السلطنه
##وزیت
غیررسمی
تیغ
معاویه
همکاران
۳۰۰۰
##چای
نشسته
فراگیری
پاتریک
موی
میسر
ثانویه
##ومو
هرود
۱۳۶۲
قابلیتهای
بکش
فش
##گذشت
قرا
اهک
##وتیک
اچام
کفش
گالری
درمی
بودم
منشی
بارندگی
##ory
تربت
bl
لت
مفت
##هره
بلخ
ایرلاینز
تفاوتهای
بدهند
هردو
تحلیلی
مبادله
نمیباشد
جنسیت
میشناسند
27
رشید
##چک
##نویسان
داروها
ساق
بانوی
نادیده
city
##ical
صفت
هاي
چادر
##وسکی
حلال
متناوب
هارد
فرص
نیافت
##پیش
##جنگ
الگوهای
##سترن
۱۵۶
صاح
##رغ
باتل
همدیگر
نیومکزیکو
مساجد
تجویز
##ick
وزارتخانه
خودروسازی
ازمایشگاهی
عضلانی
کمپین
کدهای
##چل
##سلان
شوشتر
##وتس
ادر
رویال
اقبال
##ational
##خانواده
ناسیون
##پایان
##ment
##ظری
##ota
فراوردههای
##وسه
نقدی
مطلع
فرمانداری
تابعی
پژو
ایستاده
کشاورزان
مرم
مداخله
##مام
##ستین
##وشن
ملودی
بریتانی
بالقوه
شنیده
سیستمی
خانهای
جونیور
##انان
تعبیه
وزیران
اتی
لسان
فراه
نقطهای
پرهی
محیطهای
بولیوی
فستی
پون
راوی
خطای
۱۳۵۱
ورزشهای
##دهندگان
برعکس
##ولای
شمارش
روباه
الج
علما
روزمره
ابرق
فرایندی
درای
##ern
امپرا
خاستگاه
مسدود
ویولن
انتگر
##افل
باورند
میگرفتند
ولادیمیر
##استفاده
فرح
حالات
سکو
کارشناس
تراز
##ace
مخاطبان
نوشیدنی
##زیز
شایسته
انقدر
بهخاطر
it
برنامهای
نوزده
تلم
رسانید
سیستمها
هیچکس
نوازندگی
پناهگاه
درحالیکه
موبایل
شبان
پلاک
مرج
بررسیهای
خلع
بهدلیل
##ولار
گروگان
کریستوفر
##۳۱
شهرستانی
اشر
سریلان
تایوان
۱۳۴۹
ستی
##فرم
میدهیم
سیاوش
اصطلاحات
کاروانسرای
##10
اسکو
##نظام
##فروش
علوی
فراگیر
شریعت
مکس
نگران
پشم
##پات
اقد
##خاذ
سیمان
نصیر
قاجاریه
بروند
ذوال
افرینش
وضوح
val
غزل
کارامد
##ence
موشکهای
بهاء
##تیپ
اتخاذ
کریک
تصویربرداری
ارسط
یاران
افلاط
مسلط
سلیمانی
شوک
##ابهای
ایو
رنسانس
جعبهدنده
شورشیان
پتا
##to
بازنشستگی
تزیین
غریب
اراده
تورنتو
مریخ
مخابراتی
راهپیم
مالیاتی
خوشه
ارزشهای
##قین
منز
##ash
منتقدین
یکنواخت
خراسانی
منیزیم
فاجعه
امتحان
er
پیاز
۱۳۴۸
ذخایر
اصلیترین
کشاورز
بازیافت
انتن
حاکمان
دبیرکل
مونتانا
##گرایانه
##اکبر
مسيولین
بستن
دوستانش
دانشاموز
دمکر
مزمن
اسطوره
سکس
لیز
نظریات
اسکان
سرنشین
مازندر
فستیوال
خشت
لوسی
فرانکلین
ولف
sch
ید
##ساری
قرقی
ایزوتوپ
خاتون
جاذبه
داین
شرب
##ودشت
جزیر
نورت
معارف
بالگرد
۱۳۳۰
ایزو
دشمنی
خسارت
جاز
لوز
##لاوه
اشپزی
##يیان
پیوستند
بشود
##خال
##ورث
مکات
رونمایی
عرفانی
##یص
##دد
تقاطع
مولانا
تسلی
##اروس
سیمون
غلط
مختار
ضای
##sc
اسرار
بشکه
بصره
راج
##ادیان
##وریس
گلن
بیروت
سکههای
سفرهای
فواصل
ارجاع
##ذی
خرگوش
روزنامهنگاری
سریعتر
تبر
دیکت
پسوند
بازمانده
۱۳۶۴
سپاهان
محتوی
ادامز
##گود
روایتی
##گرها
دوپ
شهادت
##ویر
##ey
کوار
اقیانوسی
مازندرانی
زیرین
روزنامههای
##غیب
نصف
مکانیزم
pl
##اهری
امیز
فیض
ژنتیک
##بیان
سنتز
town
##يود
##میده
کلن
بیماریها
ویراست
22
رودی
##uk
##میک
بوستون
شناختهشده
نجیب
استوارت
##فیع
##ana
##سرخ
فریاد
##ship
عامی
دارنده
پوشاک
پراکندگی
زندگینامه
فرور
اتاب
حلب
رکن
سمر
تواند
۱۳۴۶
مقرر
##اغل
##هایت
دهید
خداب
رشتهای
چنگی
اسانی
رابطهای
مطمين
##اقض
ایرلندی
۲۰۲۰
ربات
بچهها
چشمانداز
##حمد
کولی
شیوع
##ويیه
cd
انحلال
خدمه
متاخر
انگلیسیها
لیو
نرمال
رفسنجانی
جف
جنرال
جلگه
محلات
قدرتهای
پرداختهاست
مونتر
چشمان
ژی
دقیقی
sec
زدهاست
هـ
##pl
تضعیف
##گروه
sy
انهایی
احیا
##anc
گذاشتند
مهندسان
مضمون
##تیکی
دستاوردهای
##افعی
وقف
میدید
شکلهای
علاء
دبلی
codice
بورک
تهرانی
عس
##br
امادگی
سالیان
اسلواکی
فریدریش
ببر
صدام
پذیری
اتشکده
کوپر
شکارچی
##کینگ
##زیدن
اصلا
زیستم
##کوو
سریلانکا
پرب
فمینی
##شاخ
##ذیب
ابتکار
ژیمناست
نثر
##ادین
نیایش
گواهین
قریه
لاو
تهویه
طراحان
دقیقهای
مستح
گابری
##گوین
قلمد
معدود
تطبیق
##غرب
درگاه
##اقت
محف
پیشرفتهای
gu
ظروف
گول
##جلس
میبخش
##اتیو
متخصصان
em
طالب
برجستهترین
حسی
کوفه
کردهبود
کریمی
کمیک
پام
##orn
مصرفی
بومیان
تعلیق
24
داش
##اییان
##وهی
ترابری
##وقت
شونده
راکت
##روپ
احیای
موضعی
وک
ایی
##راش
پایههای
اسباب
ماخ
کوپ
گویی
دهندگان
ضمیم
انتقادی
مشخصه
ارمغان
ناپذیر
والد
داراییهای
منشور
اموی
معینی
محتوا
لژی
##انها
مسایل
مشاغل
چس
##nes
##اضع
مایه
بازرسی
مگس
##بیگ
کمکم
واسط
وفادار
اعلامیه
طهم
الر
۱۶۶
ناخالص
##یلن
مشاهدات
تابعه
غواص
des
نابر
یکصد
بیات
##اکم
##ult
طناب
مناق
دهقان
گذران
##ano
فیروزاباد
ممنوعیت
بنگلادش
سیدی
##وبا
ترمیم
ملخ
رایگیری
۱۹۰۷
##ندگانی
##یرت
##ont
ولیعهد
واگن
ارسنال
##خون
سامور
مامون
تپههای
bar
##يد
بهانه
یکای
اندازهای
##سلطان
مارکس
خستگی
ذاتی
##بیری
##انوس
عمود
##شهری
غلات
چوپ
راضی
##وشیما
شانه
داراب
امپراطوری
موادی
دهخدا
انتز
سیلندر
##گام
##ولهای
##حیطی
یونانیان
پنیر
##لیف
##یافته
معامل
عکسهای
سوزان
سینگ
مورت
پخته
##افته
ایرانشهر
شاپ
##مک
##ck
دربند
برطرف
##سدورف
لیتوانی
21
شوم
##طنیه
##ستو
##اسوی
گوهر
کازرون
نط
##بندان
دولتها
وزیری
استرالیای
رماننویس
##ناپذیر
چشمگیر
##ust
arch
ملاحظ
##رها
##وناگا
##زیکی
##اندند
##ومتری
ماهیان
ویلهلم
30
جهر
##فره
غیرد
زودتر
پرهیز
رایش
افری
بنزین
بازگشتی
جرمی
زرتشتیان
##50
علیاکبر
مرتبسازی
پویانمایی
ذی
سس
اوگ
منصب
ایلی
مدلسازی
بوکان
قتلعام
صوت
۱۹۰۴
حاد
زح
##bur
##یلتون
##وطی
مختلط
تداخ
اساتید
##اگو
الش
الهه
دوبله
اسیدهای
دلفین
##طیلی
۲۲۰
##کبوت
##ناو
##شدت
زایمان
غض
##ورم
##بیده
میتوانستند
مهرداد
بازده
تصاحب
ماهر
مورگان
هریس
##قند
##اکت
اهنی
صید
##اداری
حمزه
گمشده
غزه
نمره
##olog
برداشتن
یخچال
فسفات
نگرش
نصی
##وزا
ازادگان
معرفت
تخصیص
اندروید
لع
لق
##لبرگ
##ile
##اسا
##راع
۱۳۶۱
لیبرال
26
صریح
سرگ
دیابت
میکش
قسطن
عنکبوت
##فعال
عروسک
زیستمحیطی
##ry
##ادری
بیژن
کردها
لیلا
چرب
یادگار
نیتروژن
فوری
##sk
میخواهند
ادل
نبودهاست
pla
لاش
شبکهای
۱۹۰۹
لاهیجان
حسینیه
سیار
تولیدکنندگان
کانت
فرانسیسکو
##کریم
میهن
do
خند
##باله
اسپین
اندرسون
خفاش
تط
کامرون
منظر
شرکتی
نست
نهر
وری
یگان
ادولف
محبوبترین
امیزش
تماشاگران
سوالات
شاهرخ
##غیان
##سری
درویش
##احاف
شهد
سردشت
اتیو
##وگ
ریزی
سربازی
اسپرانتو
بازماندگان
##زادی
بیند
بالاتری
بگیرید
انقبا
##جامد
##۰۰۱
۱۴۸
عضوی
ذات
نک
نپال
وخ
التح
##are
سختافزار
##pr
دیار
اعتی
سواری
خداحاف
بلوغ
فرستنده
وصیت
اندیشههای
هرودوت
بخوان
قشق
cho
انحصاری
تلفنی
##ازون
مواز
ریال
حماسی
۱۴۶
جریانهای
فنون
ارغ
روزها
رونالد
هاوایی
لزوم
جغرافیا
قسطنطنیه
پکن
۱۳۴۱
۱۹۰۶
امیدوار
gre
##سمی
درشت
ملایر
موجودی
باختر
ساواک
##شب
##cc
##روک
##کسلو
دیوانه
بیجار
سازههای
همجنسگرایان
اتیوپی
ایان
ایالتهای
پنجه
سوسیالیست
اویل
سکته
بهدن
نامن
پناهندگان
بته
بوند
باورهای
اپرای
کبی
اوین
##رافت
صحرای
str
مسطح
یاداور
کوتوله
توهین
##تقی
میزی
بافتهای
نخستوزیری
پاکسازی
۱۳۴۵
##ivers
غیرممکن
بزرگداشت
فروشی
کوهها
مراغه
ارسطو
عزل
##باکس
##اشتند
دیفران
##لافی
فردین
میامی
انتها
زیبات
اورند
کاندیدای
سلیم
pe
##ولتی
یوروویژن
پالایشگاه
po
نما
##سالاری
سیرجان
صدی
##دست
مکانیسم
ماجراجویی
قراي
##ویدی
##وسازی
نوشتار
پارلمانی
عی
لاز
هیم
میکردهاست
##روه
بیننده
مبارک
دنیس
حتم
لاپ
##۹۰
##شوی
میدانهای
پرفروش
##ینگهام
تواناییهای
mun
صامت
بینهایت
صداپ
۱۳۶۶
۱۳۶۳
متاثر
مفر
میساخت
امیل
دیپلماتیک
نگاهی
##ps
##ضر
##یدو
الص
ایمن
نمودهاند
ضمیمه
##ماس
##پرستی
مستوفی
متمایل
برانگیخت
اسفر
زیگ
نساجی
پتاسیم
مشرف
پرسی
نیرومند
خوشنویسی
نیروها
حزبی
##اچی
سرزمینی
اوردهاند
زیتون
لک
##اول
سایتهای
بخارا
طولی
##ium
##ذب
##وکسی
##النهر
تبی
عتی
##چینی
تروم
کمیاب
نسلکشی
جسی
موان
گزی
گفتن
لژیون
راو
ترقی
منعکس
san
اتریشی
پنجشنبه
طرحی
۲۴۰
مهرماه
استودیوی
غزن
##تبی
##چا
متنوعی
مهاباد
لسانجلس
##کای
##وینت
اژدها
زیباترین
لوی
واز
۱۰۱
نوبوناگا
چاک
حن
سالار
تراکتور
نسخهای
شانگ
ترانهسرا
d9
##ژان
##اوران
۱۲۰۰
الکساند
تضاد
بروک
بیسیم
علایم
##org
تیرماه
روبهرو
##ake
الکتریک
محمدتقی
میبردند
پتروشیمی
باردار
چنار
دیه
شکستگی
صاحبان
غری
مجته
##اصد
##بارا
۱۴۴
پنالتی
بیدار
ورزشکاران
اعطای
##ختر
##یاورد
لیکن
کپس
گزید
##bo
انز
مردانه
احوال
اقتدار
شیروان
بانو
۱۸۹۶
هوانوردی
دایی
##وردهای
##ality
زمانیکه
go
مبه
چکسلو
کنیا
زیرخانواده
رایان
ایمیل
تزيینی
سامسونگ
gm
فام
نقرهای
۲۳۰
رضایی
نوازندگان
امضاء
میخوانند
ناقص
فوک
کجا
reg
##ناطیس
دیسی
##ara
وسیلهای
اصطلاحی
۱۸۹۰
دماوند
##بودی
اسمی
تناسب
تکمیلی
fe
##مری
اچدی
il
تاتی
لیند
ژوزف
ساوه
##ost
الهیات
23
حات
تهی
الدوله
معترضان
##گارد
##شایر
##زیر
ترانهای
##ere
اسپورت
##سالار
پنی
مواضع
کرمانی
فردا
گشایش
پوز
۴۵۰
##عون
گردهم
نمایی
واردات
فرانسوا
صغیر
ابش
الکترو
عزت
عبدالرحمن
##ms
گلها
تایم
سانسور
##خسرو
انوش
هموار
##اسد
##ونتوس
##سمس
حجاب
نظریههای
حامد
سوت
منقر
۱۳۰۰
ضربات
دیرینگی
محفظه
##yl
اتو
##نتس
جنبشهای
تعطیلات
مستعمره
تجربیات
چکسلواکی
list
نپذیرفت
گنو
محوری
اعلان
مبانی
##وپل
مسافرت
##وارتز
تنکابن
عار
چیره
گان
انچ
##کاوی
ارامنه
شریعتی
سیری
##موند
عموی
بدترین
غلامرضا
حالتهای
ایدههای
بجای
پاز
##زیان
##نگر
معای
##شدگان
کاکا
مادهای
بیرجند
حریم
رانده
سرسبز
اقلید
مونته
##فتد
دروازهبان
نکات
فرهنگهای
##me
پره
شبهجز
کمونیستی
sa
ver
##جت
##فیر
##راط
قلمر
گویشهای
انتگرال
##۸۶
مقاطع
تاریخنگار
تعمیم
شکوف
##ودین
تنه
برنارد
مغولان
منقرض
عاج
میمیر
شدگان
فرمت
خیام
گوین
کریسمس
مخفیانه
چلسی
##ve
بهروز
ترجم
کلار
منحصربه
گوید
##وریک
نظرسنجی
##دادی
##ba
##افز
حیث
راهپیمایی
##وتون
کلاین
لیپ
خبرگان
نرساند
۱۹۰۳
خشمگین
بسازد
عبدالعزیز
میتر
کانتی
قلمداد
بنده
##سیت
مسج
اشیا
احسان
ریگ
۱۴۷
پاداش
مسلحانه
توپخانه
##da
سیام
رکود
دیک
نوکل
بلوط
باغات
مصرفکننده
مشاهیر
پرنس
اتهامات
##اهب
شوگون
##قام
اسام
دیجیتالی
##برا
##هرا
۲۱۰
پدیدههای
met
زو
اندری
دهستانهای
##eng
گوجه
سادهتر
پارامترهای
اوز
نبودن
مولد
##۴۵
بوستان
فوتسال
ایديولوژی
اعتیاد
سارد
سمیر
##12
بهت
##هاوزن
عماد
ستارهای
دشواری
پیشگامان
بنج
##ملی
##ایاس
##برن
یونگ
گواهینامه
اگز
رنو
##ca
اشوب
سیمرغ
##ازد
اوس
کروی
۱۳۳۷
پروتيینهای
تشیع
چنگیز
یابی
نامو
کرای
موفقترین
رقابتی
جاود
ماهیگیری
##ابا
معنایی
نوا
تشریف
شوالیه
تراش
wor
##الث
##ورس
##کوور
روسای
کارهایی
##برانگیز
##الیستی
انتاریو
۱۰۲
ابوالف
اکوادور
خدماتی
انقباض
ورا
##ندو
##هایشان
برپایی
اسرای
دیز
اضطراب
بیانیهای
##فیل
##اکر
لینکلن
##دهند
##رکن
انداخته
دستگاهها
نارنجی
نوکیا
زرهی
حمد
لانه
باهم
##سیتی
مغازه
پناهنده
ناکام
دفاتر
۴خانوار
تلگراف
۱۳۳۵
وصف
##اریخ
نامههای
##دارنده
یزدگرد
سازندگان
##وين
واکسن
بهکارگیری
##int
نشانهای
نهاوند
رصدخانه
فاتح
pol
##ترن
۱۹۰۱
##فورم
بچههای
##غانی
##مانت
گراد
دستمزد
##ann
سنگینی
کاسته
اظهارات
بتمن
net
فک
##البی
##سیته
بیکاری
کشورش
انجیر
۲۵۰۰
north
by
##زیا
دیزنی
نقشههای
اپرات
فیلد
معماران
بریتیش
جیسون
۱۳۴۳
west
تابعیت
تفلیس
مارکسی
میگذر
مکن
سرشار
گرند
سوق
ایدز
ناتوانی
قنده
استارا
##امدی
مجتبی
ترم
رخداد
دیوارها
فرانکفورت
فزاینده
کبیسه
حتما
بافی
اشباع
##امیزی
رایانههای
دعا
##بخشی
مهارتهای
معیارهای
الکسی
کلاته
گلپای
۱۳۳۶
سهراب
چارتهای
قرقیز
بذر
باغی
##انیک
امست
نقوش
سنگها
ماندند
وحید
فایلهای
پینک
سکان
طع
ممل
چتر
منفرد
جابجا
مینوشت
عینی
##وفسکی
انسانهای
ایسلند
نامناسب
یگانه
##امتی
سرای
تحرک
اجری
لیون
مصوبه
گای
مرسد
univers
بارک
تقل
ستم
میپر
##لیوس
سیبری
کیو
فقدان
خاکستر
هت
بهزاد
سیمین
کادر
##عا
##نگام
جهانگیر
جانوری
تدریجی
هلن
حجت
هاک
##رکان
محدودی
سرویسهای
شبهجزیره
زانو
##گاد
##امهای
مته
اختیارات
متقاعد
مایر
##خم
انتون
نسبیت
جوهر
محلههای
ناشناس
میگردید
تهاجمی
##وشو
گرینویچ
100
بفر
تاد
##جههای
##ank
##icip
۱۳۲۴
اطلاعرسانی
احتیاج
بشمار
خنج
روحیه
ريیسجمهوری
کامیک
حاجیاباد
رجب
che
میانداز
مجسم
افق
رنگها
عبدالحسین
مولوی
الکترومغناطیسی
عاطفی
پاور
چری
صحرا
اتاقهای
ماکرو
الیاژهای
##حید
هرگاه
رشتهکوه
##نشان
##ضار
برکه
امارت
##کاوا
پیکان
بنفش
اصطلاحا
کنگو
بپردازند
intern
جویی
نگاری
واد
##يور
حیوانی
res
ريی
هاگ
دوبل
نمادهای
##نینگ
بدنبال
۱۳۴۴
پشتیبان
##طالب
ارسلان
تحمیل
اخوند
اسپارت
##ata
کامیکس
شوهرش
##پیچی
پلاستیکی
سرداران
حباب
سامی
باف
شاهرود
گزارشها
نداشتن
##act
id
قف
##ase
کاپور
all
ونکوور
اسفندیار
مختر
ممسنی
۱۱۲
استیاس
دیاکسید
fa
اویز
##وامد
رودهای
مقدمات
کوي
##اگاس
نبردی
بمبگذاری
بالی
طغر
##کوی
شارژ
سوسیال
عفو
av
دلی
فلا
گات
##پسون
صفات
نوشتهاند
##old
نمادین
تویوتا
کاج
##تیکو
میلیونها
۱۳۳۹
مکتوب
2009
بههمراه
##لود
ریگان
شنید
یواس
خودروها
مفسر
عنک
هارون
اسماعیلی
گونهها
احمداباد
ind
خت
۲۶۰
##وییم
نوبه
مثنوی
##80
فرشت
۱۰۳
نارسایی
عنکبوتی
##سفر
دانمار
وفاداری
##sa
معاش
دوشی
گرای
سواره
ماموریتهای
افلاطون
سامورایی
ارل
مارکوس
iso
درگرفت
##ینس
##مینگ
##ics
محلهای
سابقا
رند
ماب
یوز
صفویان
یوری
برسند
الام
موهای
تورین
پروازش
صادقی
برهنه
دانمارکی
مشکلی
میانجی
هنگامیکه
اوباما
##ژنی
تنب
فعالیتها
##کبیر
##بلیو
##سیوس
تاثیری
۱۳۲۹
کتابخانههای
ماتری
##لها
##۴۸
##خوش
درهای
متیل
##وبین
کالای
مقامهای
سکوی
نمایشهای
تکاملی
خرمشهر
گمرک
استثنا
هایدلبرگ
af
بجز
باج
فولادی
ترمین
۵خانوار
عبادت
رودخانهای
چشمههای
قانونگذاری
ضم
راش
نداشتهاست
پايولو
gro
کارلو
htm
گوم
جنازه
اعتقادات
ستونهای
انگیز
ماین
##رههای
سرش
افزار
بلوری
##ايلی
رودری
سفری
۱۳۲۵
رکوردز
ناموفق
درباری
##تیان
متنی
پرسن
کیان
عزاد
##so
میکوش
##فیقی
افراطی
ایلند
سیاستمداران
ساعات
۱۳۲۸
##شاء
township
گالی
##هال
##جاری
##gh
بهرهوری
تومور
اوستایی
دزد
مالت
##قول
برجای
مارکو
اراء
زادگاهش
فاضلاب
چان
انص
شهرسازی
##وزین
بازپس
شاملو
افسانههای
نمایشنامهنویس
##13
شدیدا
مشکوک
ادمی
کمدین
روشنی
ژرژ
del
قو
فرودگاههای
خوشب
عوام
##جانبه
ببرند
فاشی
ایپی
نامنظ
ورشو
مایعات
پروتستان
رایجترین
روشنفکران
تدا
جبری
طوسی
همیلتون
نیکش
خودی
##سلر
municip
سونگ
مستر
##فیس
پترزبورگ
بریده
##اترا
مقدونیه
dr
وت
مییافت
ارتقای
هواشناسی
باشگاهی
جنیفر
طلو
میداشت
میانرود
فیشر
عامیانه
دونده
فصول
##جرد
##صرف
همگان
##ung
نوزادان
##ریفی
متخل
محصور
##یلت
توکو
ملوان
خاطره
فرسایش
ریتم
زيوس
##یناف
رجال
اوا
##بیای
پروتون
سعادت
ژنوم
حزبالله
جهرم
غن
هرمان
پیوندهای
بنایی
گذرگاه
کشمکش
اودا
جاک
کارون
جواهر
پروازهای
بکارگیری
امادهسازی
حص
بودا
قرارگیری
خدابنده
پوی
کارايی
شرعی
رنگین
۱۳۳۸
مرسدس
جفر
فیت
##۴۷
موز
##یاف
ماهنامه
قسمتهایی
شهروندی
بیضایی
لاه
یوونتوس
##مرغ
۱۸۹۵
مروارید
نامعل
##بانو
ریب
مدیریتی
انجمنهای
موفقیتهای
دربرگیرنده
شفافیت
گسسته
دیفرانسیل
##ایکس
مهمتر
هلال
انداختن
سرمای
2013
هرزگوین
فاش
قیر
۰۱
متعهد
کیفی
شخصیتها
لنف
مصادف
مشروطیت
زال
##تسا
##شانی
نوادا
مطهری
ولیکن
##مالک
یونیکس
معترض
##۵۶
دراین
اریایی
گرایشهای
لاکپشت
شگفتانگیز
قلمروی
نیکشهر
ضل
یاق
شهرام
اسدالله
##لاع
انتصاب
لوکس
فوران
##ولینی
منو
##کنندههای
فروشنده
ژورن
دلایلی
سیلوا
بورکیناف
##ازههای
زیرب
کالاها
ذرت
لکه
##رسان
یاخته
سوابق
عمرش
وارث
دامنههای
معاملات
عادت
غافل
پستی
##ارج
##الههای
اینطور
عضله
##ome
نرسید
غنا
پارهای
تیغه
واژهای
نازیها
لزوما
##ادان
رویار
جنگافزار
یاداوری
جادویی
یل
یابند
##ous
##زیستی
ارگان
گردند
##لور
انشع
مذاهب
عدسی
نبردهای
##یف
##les
برکلی
##ختند
ساختهاست
احضار
خرج
##illa
لارنس
مقصود
عطر
هجر
۰۳
##چوان
##di
ترکها
غیرع
ناحیهای
مستمر
شاهکار
اره
##بلاست
عروق
استعفای
۵۰۰۰
##باف
##ستقیم
امیری
##ومری
تبخیر
ملایم
مثبتی
##انته
اجراهای
عیل
گورک
##پرو
##یرز
##ha
السلطنه
الملک
فوتب
هوک
لوپز
تورینگ
۲۷۰
۱۹۰۲
مختصر
اسلوونی
هامبورگ
ليو
##ورده
الغ
تجرب
۲۵۶
ناخو
ملاحظه
##یتهای
امیرکبیر
ارمنیتبار
تبیین
لطی
کارگزار
دورود
پیشبرد
یافتههای
سروش
بختیار
##سفید
سوان
مچ
ماي
##سیاس
دیواری
پیچی
##ینیان
ماداگاس
خالق
فریم
بهجای
صدف
عبدالکریم
بانکهای
بابلی
ارزشی
یهودیت
##نشاه
علنی
کتابهایی
##بودن
ستارههای
نمیتوانست
ناراحتی
تحقیر
##ستول
##اهدی
وول
محمداباد
ازادیبخش
الحاق
تیتانیوم
ببیند
صبا
دستکم
استفان
ادوار
سبکی
سرخس
مغولستان
ابراهیمی
کويینز
##خود
##اهام
بازجویی
رمانهای
قزوینی
##iew
دگرگون
گابریل
ca
خانی
ریل
##ii
محتر
اقلیمی
مستطیل
نداده
ابیطالب
وسترن
##فتن
مداری
گروههایی
اموزشهای
سفرنامه
ابوالفضل
طغرل
قح
بواس
اصولا
پایگاههای
کانالهای
اشترا
حسناباد
سریالهای
رساندند
دلیلی
##پری
معج
ارواح
##مهدی
پرکار
##وجهی
قبال
##کاو
قطره
گرانشی
world
##۸۵
افرینی
دوستش
کهنترین
ردیابی
مملکت
##عودی
معلق
##فاعی
##سلیمان
##لوی
##ارند
انزی
یوتیوب
قوچان
مطبوعاتی
سفت
شافعی
کارتر
بارگذاری
متراکم
op
نایت
اصابت
هوادار
بانکها
اتصالات
سیگنالهای
sur
غبار
##۹۹
##بیلی
##دیده
محراب
طولانیترین
قوت
نشین
خوک
کوفی
اطاعت
عملیاتهای
افتادن
برکناری
##باقر
جاج
ایراد
جمجمه
نفرت
اهسته
بلوم
اسیبهای
##باشی
نیوتن
سایز
الوار
تلفیق
پیری
فردوس
نوشتاری
تصمیمات
۱۳۲۷
باکتریها
تماشای
غیردولتی
ضلعی
##ساران
بردهاست
اقماری
##ايیه
پروست
مذاب
فراخوانی
اسدی
ترغیب
ماهوارهای
۱۸۹۸
تناسلی
##لف
##امبورگ
قیمتی
اتوماتیک
استنلی
ین
اران
خونین
سوگند
تداخل
red
##راز
##۴۶
##نگان
##وسور
##مرز
عنبر
غروب
مراسمی
##وهانس
ورم
تيودور
خرما
south
زعفران
کفر
##ملهای
شعرهای
۱۸۹۷
تطابق
cal
gen
##vin
##خط
رادیکال
ماریو
اگهی
رافايل
لاج
##ظف
۱۱۱
فلج
سلطانی
بهرهمند
کلینتون
خداحافظی
##گول
الکلی
ایذه
رویا
##پرست
چیست
##وسیان
کامیون
لاند
وایل
##یج
##بون
##اریست
ترنس
##پروری
مادها
فشارهای
تمدید
کامپوزیت
نامشخص
##شدهاست
بیعت
غیرفعال
تگ
تایت
ماف
ژولی
لوکز
اهنگی
دودویی
منهتن
خسته
ضعی
پاست
یزید
میث
شدهای
دریچه
رجو
ویش
##۸۷
التو
ادراک
پنهانی
شجاعت
نکردهاست
ضخیم
بورد
خمین
سپر
شاهنشاه
همانگونه
بیرنگ
گیرندههای
میبخشد
بتهوون
برندگان
۱۳۳۴
تمرینات
پلاسما
شون
##وبری
اجداد
حکمران
##ime
بروجردی
بمانند
مکل
امازون
مدارهای
نقاشان
نیزه
امریکن
احادی
۲۲۵
سحابی
گوستاو
دبلیود
جیل
##مهر
ویک
دستکاری
شاعری
نروژی
شرطی
وقفه
هفتگی
اتمهای
گنجایش
ببینید
##ield
گوردون
ابرقهر
پرسنل
ماداگاسکار
##نب
##۹۵
صخرهای
##اریف
ابوس
مصور
قزل
فیلسوفان
اقدامی
قشقایی
یر
یوزف
اهم
##ولیتهای
شخصا
ولت
تایپ
۱۸۶۳
ناصری
ورشک
بازرگانان
قرقیزستان
قارهای
##son
کران
شمش
اردوی
محرمانه
عهدنامه
mat
ساپ
کورد
۲۰۶
ایلخانی
کامپایلر
رویارویی
شیری
##هید
##زیس
متکی
نمادی
پایانه
کیپ
خیابانها
##ونیت
مطل
##زندگان
##تولید
درخشش
جادوگر
مخترع
وانگ
بلاروس
ناحی
اموزگار
نیمکره
نجوم
سقز
##ونگا
همدانی
دپارتمان
اماس
واگذاری
پادگان
سامر
جوانترین
حلقوی
انتزاعی
sw
شوی
اینشتین
اپارتمان
مطابقت
نصرت
جود
##سلاو
##اریهای
فرات
موظف
ایپ
میکروسکوپ
دزدان
بامداد
چرم
۰۲
نزدیکتر
داستانها
جلوههای
۱۸۹۹
municipality
مینگ
اشن
همهپرسی
قدری
فرزندی
ak
##یشده
افشا
سقط
gl
##اهند
کارول
۲۰۵
##اکسی
فیلمبردار
پروازی
نگاره
شواهدی
ارمنیها
اهنگسازان
جیرو
##زور
گرده
فلش
امریکاییها
برجهای
فرستادن
کاسه
##ماهیان
ثانی
اسایش
پروین
نباش
امیخته
لتونی
تین
##iy
مشورت
مغان
نهادند
همجوار
غیرمستقیم
اشپز
اسکندریه
مبهم
جاه
##ula
##میس
کتابش
##گرفتن
نامنظم
فریت
##کرب
##uary
##زیو
اقتباسی
رومن
پوپ
داروین
##انشاه
کلرید
##جیان
۱۱۳
بیمارستانی
##قدس
جبال
کافه
گنگ
گرب
محمدباقر
گوگرد
##ساکا
مناظر
##جنس
##ونس
معرف
نوح
چاپی
جنسیتی
مونتاژ
نکردند
کاروانسرا
موشکی
jul
لالی
##۴۴
##گد
##وسو
فیلی
فلوید
##idae
بستهبندی
گزاره
اسکناس
لولههای
##گال
نامط
تکذیب
تداوم
میچر
یکسال
##فرما
سرگذشت
اموخته
اضطراری
راهبردی
طلوع
##گت
کلک
##ويه
جاناتان
هاکی
بحر
انحصار
##بابک
ژیمناستیک
hy
تانگ
دات
##وارا
خطرات
ویرانی
رخد
مواجهه
کسری
برشم
##ابهار
سادهترین
زمام
شفاهی
up
##۷۵
##ane
وبلاگ
##چگی
##60
##وسان
امستردام
هود
۱۳۳۳
بیهوشی
##gress
توکوگاوا
شبی
شهربابک
مانويل
ویژگیها
اسپرینگز
کاغذی
##gin
شرکتکننده
تقارن
جوجه
اذیت
روزنامهها
پیوندی
موانع
##انند
مرع
انتهایی
رحمت
میرفتند
بستان
کونی
##غربی
برگردان
فرانتس
۱۲۳
امامت
داود
شکوفایی
##راد
رویای
ترکمان
پروسه
المانیها
لرزه
ناتو
زراعت
نابرابری
قندهار
##الیم
همیشگی
فرج
کاتال
ناپاید
دایمی
التحصیل
##سالی
هیو
دستگاهی
خشکس
we
لاین
##ندورف
##اندین
سانتوس
نشدهاند
دایرهای
بجن
فینی
##امز
۱۸۰۰
میلیمتری
##سویل
جاهای
سیسیل
cp
ec
##ونیست
دستههای
مقاصد
فلاند
مجموعا
میپرداختند
غیبت
نبی
هندبال
شعبان
دانلود
ازادسازی
استرس
اسکای
##oll
معلمان
کارايیب
##گشایی
موفقیتامیز
مصاف
پاهای
پیامهای
میهمان
کمینه
حايز
نوسازی
بخشیدن
گفتگوی
پوشانده
اپولو
cla
##ونال
ارتس
ایدهال
خلاقیت
50
##۸۸
##۹۶
##ربندی
##ناکی
مهربان
دانستن
##کوپتر
سبزیجات
##ازند
بیح
بعث
مارین
میکردهاند
تزيینات
طهماسب
پنگ
##وازی
##ham
الزام
مصارف
فعالیتش
تشکل
واحدی
بستههای
میفه
##مدار
امریکاست
۱۸۸۰
ریختهگری
انچنان
جاش
دلو
##11
دراورده
درصدی
جنگها
کیس
##ونته
پاپی
ژرمن
اسفراین
خشکسالی
۷۵۰
استکه
امینی
##برده
کوشک
انعق
منفجر
##رض
کردیم
تمس
موتورز
تلمبه
هانی
برا
ایاو
##کلند
۱۲۲
ایلات
ماشینی
رودخانههای
خشای
مراقبتهای
رفسنجان
روبروی
لوکزامبورگ
سرما
##نیس
مطالع
برزیلی
متقارن
کپسول
##باتی
##ford
۲۰۷
پیشت
عبارات
ریوی
گذارد
اورانیوم
تالش
har
with
##کریت
##الحی
موصل
ارقام
اجم
اندو
چندگانه
دیرینه
میکنید
میخايیل
ناخواسته
گاما
کشنده
##وفن
##شویی
نخستینبار
هیلز
پارسیان
ربوده
منحصربهفرد
موثری
فرزندانش
مسجدسلیمان
سوزن
ماوراء
شت
شکس
##ناز
اجلاس
تناقض
ریلی
کاظمی
نجومی
جشنوارههای
##انژ
بافته
مصلح
سنتهای
et
هوندا
اینرو
داروسازی
کلو
اسپن
تاکسی
فرمانروایان
لمس
جوار
##دختر
القا
نوسنگی
##فیک
کوهدشت
هاوس
تکنی
۱۳۲۶
2008
##si
##ادهایی
نورمن
خانهاش
بعضا
عباساباد
حفاظ
اسکاتلندی
واکر
انستیتو
gmina
کارخان
مرمر
اسیدی
گوشیهای
نشدند
مخروطی
##بیاسدی
ضایعات
عارضه
فاین
واین
##سیستم
یکسانی
ایبی
##لوف
##aint
دایناس
میزیست
مناره
اخوان
اکورد
اسکیت
پیامدهای
پانک
پنت
ویو
مرجان
ادو
تصوف
رییس
خبرنگاران
کبدی
مجلسی
28
di
mus
ثور
منسو
عمرو
اکادمیک
29
جعلی
نارا
##زمی
انالوگ
روبرت
افرین
##enn
کاملی
مفصلی
کروبی
لینک
موسیقایی
mw
راگ
بازبینی
نویسان
اموختن
تانز
جبل
رنه
##تپه
قرض
میرز
##چهها
روحانیت
محافل
سراوان
میبینیم
براک
دوس
میدانیم
امرای
##سپار
##طبیعی
aw
##۹۷
##bs
ساختگی
کالبد
عواملی
میفرستد
بریتانیای
یاقوت
ic
تتر
سومی
صهی
##اعده
مخازن
بقای
رمزگذاری
مرورگر
حیدری
سوب
##شور
گراند
##ons
تعاریف
بعلت
مارگارت
تاجگذاری
فاطمی
زراعی
فوم
بويین
دورانی
ریشتر
##ابدین
سانحه
tex
##وژن
##sm
راهکار
سردبیری
##گونهای
تراشه
198
پیشگام
اورژ
مخرب
پایاننامه
گرمایش
##يان
بهمع
مسايلی
گرسنگی
بینظ
پاسکال
بگوید
##خورده
بایت
صر
وادی
میپیوندد
کارتهای
کشمیر
جنبشی
کارخانههای
سنجی
خویشاوند
فشاری
چابهار
باربارا
۱۲۱
تغییری
حرام
زحمت
html
شکسپیر
cor
تابل
ایک
مدفون
##ونیه
ترمز
##جیو
سنسور
##سترول
کربنات
۳۲۰
مستحکم
بگو
رغم
برسانند
بلوز
مهمات
نیکلاس
کويینزلند
داس
هین
تاکتیک
پروتيینها
##ةالمع
da
##وکس
بعدتر
شنوایی
خرابی
مشهود
شایعترین
استکهلم
خراج
لاي
##ماسی
جشنهای
بیابانی
ابشاری
نقدهای
##قلعه
الکترونها
تقریب
متناظر
تطبیقی
بیکر
##دیان
##ونیسم
##ینیو
بنه
##کارا
درگیریها
minnes
صفحهای
قاطع
نمایه
کلات
دلفان
سنگر
سویا
تفریح
کدگذاری
متناهی
بنیادین
گردهمایی
minnesota
##لیون
شدم
روبه
موه
جملات
بیولوژیکی
سطر
کشتیها
تعدیل
##نوج
نازل
گلوکز
my
اوه
##کاف
مشای
##گذر
مترمربع
شکاری
دریک
عباسیان
##جملهای
##کاکی
مولفه
بخواهد
کژ
##لوم
##تیست
رویت
##ino
هفتهنامه
تایر
دونگ
##جل
ویلا
##پسند
##گیت
نواب
مسابقهای
نید
گریه
گوزن
##ance
مرتکب
امتیازات
ممان
میمانند
برخوردارند
اپیز
کتیبههای
عود
وم
باشکوه
رفتوامد
سرمایهداری
جونگ
برح
انگولا
سردر
لودویگ
بیضی
اساسنامه
##oph
قرايت
پسته
##یروان
فرانکو
دلالت
##ement
بمبيی
رباعی
شانگهای
پک
##نوس
برگها
بشریت
چیزهای
archive
گوینده
جلیل
اهلی
ملکی
حضورش
الیگود
تریپل
##چان
##ze
استه
استخوانی
معط
اولاد
حماسه
##mun
اسکری
دامغان
قمی
##70
##نیها
ابلاغ
##اویری
مورو
وارده
دشتهای
رویش
بازگو
شبستان
تورات
سودمند
پوستر
##ember
نشستن
هرکول
اندازههای
سرنگون
لون
##حت
بادن
عرضی
تیس
tur
ربع
##چیل
##ظور
بیفتد
ادای
محمدحسن
سومالی
۶۵۰
##ومیر
کارتون
سیسی
موجودیت
۱۸۶۱
میامدند
هلیکوپتر
سرسخت
##طار
استارک
مرودشت
استفادهکننده
منتظری
بالکان
گفتههای
انعکاس
لشکری
هربرت
متی
##go
ارزوی
علاقهمندان
شلوار
هاوارد
##اتسو
دستوری
شاهزادگان
کاوه
ژاند
سرگرم
شیوهای
##فنون
گزینش
قشون
واجد
پوینت
##وپی
اشیای
##شیو
##ari
۲۱۶
انتقادات
سوسک
یازدهمین
توریستی
کارخانجات
اشتر
##40
##مدان
اتمسفر
احساسی
۱۸۶۰
کابین
دوربینهای
بلورین
منازل
##der
اوساکا
توفیق
گراهام
مهمانی
##موث
تصاویری
##سرعت
بیستون
نقی
##سینی
منطبق
ایتی
مطالبی
پوششی
برنامههایی
trans
همکارانش
سيول
چرک
یاخت
##وتین
بوک
##خشان
ورامین
موقعیتهای
محکومیت
##طیر
سرطانی
بازگردد
عملگر
خرچنگ
##علیق
عاشورا
مونترال
میانرودان
پوم
مجاری
مینا
##سلم
پالس
char
##مودین
معصوم
##خالی
لوکاس
۱۳۳۱
فقهی
pc
غدد
۶خانوار
برمید
اشوریان
##اسیاب
صدمه
دینار
پروتيینی
زندگیاش
##ةالمعارف
چیر
کاي
رات
گردیدند
نیما
cap
mic
شوری
گسیل
میپند
##اموزی
خانق
کردهای
بنجامین
۴۰۰۰
میرحسین
تجار
سنجاب
کمونیسم
گیتاریست
کاراگاه
پلو
##ادند
ایگ
##تیا
ارارات
مجرای
##بافی
##ene
پدیداور
چا
##حاب
میکرون
کمرنگ
جهنم
هواف
هوگو
سیارکها
قدرتی
اسپه
توران
دندانهای
جریمه
بواسطه
الیگودرز
ایدی
هنج
میافز
اصولی
##ایدو
میانجامد
جار
کاسی
یوس
سرپل
ترمودین
متحمل
ایداهو
ترانزیست
انشعاب
بگذارند
##ساد
##۴۹
قرارگاه
عبید
فیسب
صدراع
سولفات
اسراییل
دستاورد
##فیعی
قباد
دانا
اجزاء
چانگ
##نال
سهولت
صدایی
احادیث
عاق
محفل
بیو
فیلادل
پیامی
معال
رسد
مکزیکی
لوکا
##ose
بگیریم
توضیحات
فلورانس
سمند
فند
##۵۵
##ودار
##یرانی
##ومینگ
متض
##وریو
باروری
المپی
دماهای
مینامیدند
وبر
۷خانوار
##بز
پیشانی
سهمیه
موقعیتی
۱۸۸۹
درجات
بهبودی
##دران
تلاشی
حسگر
from
ایمی
تکان
براند
معاف
دیگ
یوفا
درصدد
فیزیولوژی
congress
ژول
##تار
انصار
کالین
ناتوان
هاینریش
##الیان
مجالس
سهامی
##ولیسم
رودسر
خیبر
فروخت
۱۸۷۰
ویديوی
کمبو
##وندای
##باغه
##itt
ییلاق
متیو
یاب
##بید
##اسکو
علیزاده
مونو
نادری
شلو
وزر
##کندی
##حر
وجودی
##ضایتی
طالقانی
مهاجمان
صمیمی
شات
##تسه
##ارین
کاراته
کنج
میبند
##erm
##دریج
دستورهای
اسپرینگ
دانشاموزان
استوایی
۲۰۸
بارانی
##ژیکی
۱۸۹۴
۳۳۰
پیادهنظام
تشییع
فردیناند
##غت
ازان
ناار
##rop
##قاضی
جفری
نایل
تاخت
ابگرم
بازوی
##منه
بلورهای
گلف
##ونتو
۱۸۹۲
سوسیالیسم
نامزدهای
can
ضیاء
لوری
هانا
چقدر
اسانس
سازوکار
تریلر
گریس
pre
درا
##الر
سرل
کششی
عربها
مسمومیت
عتیق
محترم
تانزانیا
ظلم
##واندو
##خصوصی
ماسک
حلقههای
رانش
نجم
ژو
##30
استرو
##کنار
##تیبی
حماس
##خوانده
معروفی
عذ
تیموری
art
احتراق
بویژه
استادیوم
قورباغه
bro
mod
امبر
جنت
##ینگو
قیاس
زرند
کلیساهای
بروکسل
کوسه
همسایگی
ربیع
##زیدنت
میکشند
انوشیروان
قفسه
su
تامی
اوبلاست
کلانشهر
##کرده
اقایان
پرتوهای
ارگانیسم
بورکینافاسوی
نکنند
تصریح
حقایق
##ama
وارنر
مگاوات
رولینگ
لغتنامه
شایان
۵۵۰
##پزشک
##ga
##شتن
سرپوش
بخشها
میروید
فیات
end
چالوس
##اندیناوی
pa
بي
زهی
برایشان
اسهال
اجبار
دخیل
۱۸۹۳
نادرشاه
جلالالدین
محضر
مصادره
ib
##رن
##ien
دستخوش
لبنی
۲۸۰
محققین
bu
اریان
لورن
ولو
سیارات
بنادر
سقراط
ناراحت
توافقنامه
حبیبالله
بقا
استال
##سیاه
موجی
##نهام
نمایانگر
جنجال
lang
جزی
هانت
##پلی
داوید
فیلیپس
کامپیوترهای
قحطی
##زنان
اموزههای
اسکاندیناوی
گناباد
سرنگونی
فرصتی
پم
بهای
##شرقی
##سیسم
انتقالی
تشنج
۱۸۶۲
نمیداند
نستعلیق
vo
##اختند
جواهرات
مرحلهای
کاتالیز
همجنسگرایی
july
زاب
هاس
میکشید
سهبعدی
تحتانی
ایزدان
وارن
بهايیان
##۹۸
##fa
##عصر
استانها
برادرزاده
عملکردی
دنبالهدار
بهبهان
fo
لاستیک
##۷۶
##الود
ایش
تعطیلی
روانشناس
عشایری
اعضاء
اسکلت
دیکتاتوری
mac
رندی
ستر
جهات
بازگشتند
جمعا
خواستند
زنجانی
نارضایتی
الکتریسیته
فیسبوک
ساکس
پایهای
##پرت
کامران
دینامیک
مشترکی
قراردادهای
##کوموتی
اهدای
ناهنج
airport
لاگ
گریت
برین
معابد
اشارهای
کانتون
روشهایی
اعتدال
۱۳۱۶
بریستول
دوشیزه
کرام
حسنی
نزول
کوتاهتر
چیزهایی
زهره
صوفیه
سمرقند
congressional
واع
سالو
##بیوتیک
خوانی
تکموت
مایلی
فصلهای
تماشاگر
تکموتوره
pet
وورت
ارون
##وستون
صنفی
پاسار
بورن
منعقد
ارنولد
مرعشی
تسو
قشم
نوم
##cp
امینه
سرتیپ
ترام
اطلاعی
کریمه
محدث
arm
گنجینه
138
طالقان
غواصی
ملاحظهای
عزاداری
sub
خسر
شول
شکو
##ایک
راستی
##اتری
قرانی
نخب
حکمی
##سپاری
قربان
کنسرتهای
تالیفات
ناساز
جسمانی
زوال
طاهری
لیر
اینکار
توهم
پیشنها
رهسپار
نارنج
اخترشناسی
امپری
جابهجایی
خنده
##kin
انبس
ایکی
##راء
محو
جنگجویان
نخاعی
##بریا
##اسیا
طبع
۱۸۸۸
صلاحالدین
##لاطین
جانداران
گاد
##عین
##اینی
فرعون
ارضی
ادارات
دادگاههای
نوروزی
مادربزرگ
ناتمام
میخورند
ژنهای
گلیم
تحکیم
دخترانه
گنجانده
راهنما
تدوینگر
مدافعان
لایت
اینان
املی
نیوه
اهو
پیغام
مهیج
##کرز
تهوع
خوردند
قالبهای
university
برتون
ادریان
پیکار
هیات
۲۳۵
پذیرایی
ناگزیر
نصرالله
چرخشی
حجر
دیتر
##che
##قع
##ندری
براز
کلامی
##ition
رجوع
شاتل
پابر
کید
##گوت
معی
اهور
اندوه
واکن
دیداری
##ise
##توجه
۲۱۵
خواستههای
##aph
لال
نویز
کع
تماما
##att
بازگشایی
فرمهای
نظامهای
تزار
نفرین
فلفل
فارسیزبان
عمرانی
سایپا
اشعاری
استخوانهای
انیمه
بدیع
المل
##تیه
تحقیقی
ارزو
وجوه
سیلیکون
وکالت
##be
مسلس
ابریز
##گردانی
تبع
طبس
جلدی
##unt
ste
۱۳۱۴
داوطلبانه
مطالعاتی
معطوف
##فیان
گردنه
زندگانی
ماهور
دلتا
الیاس
پاراگويه
32
jp
##راتی
##کایی
نامیدند
حکام
نمیدهند
##گاریت
کلاغ
بدیهی
هک
اناه
##لیز
##اهل
گروس
سهل
مشتاق
۱۸۸۵
##stem
انگشتان
فرشتگان
ep
نکن
##راق
ایرس
محبت
پیشگویی
مارچ
پوشیدن
فوکو
بینظیر
فیلادلفیا
lo
نلسون
بوز
##واران
بسزایی
امیزی
مربیان
همجنسگرا
اچامایاس
هجرت
استات
محسوس
بدتر
تیمها
##سالگی
گذاشتهاست
نافر
تکراری
دوقلو
وبا
سرودن
سیگ
##سترانگ
مینور
عقرب
اعتراضی
لنگر
بجنورد
##ازاکی
بوداپ
##نیان
##وبیل
شمیران
دانشکدههای
فسفر
جنگلها
گارسیا
مشم
سرعتی
داران
فلک
۲۵۵
بلوچی
فراگرفت
سینماهای
جفرسون
مینش
نمایشگر
مبح
صداهای
بحثهای
ژنرات
نیلوفر
پیکربندی
سي
یشت
##جله
عمویش
##اين
نزاع
سرخرگ
فولکل
قصیده
زبانشناس
خاق
##ینال
بارون
پارکر
سیلور
فضلالله
میاندازد
دربرد
مشکی
پرز
تبعیت
تکواندو
پهنا
بردهاند
ضرر
متخصصین
عزیمت
تبت
زبر
کامبو
۱۴۱
جادههای
نايین
pop
##انول
##ومات
##اکل
اصحاب
زمانبندی
نخود
##ert
نیروگاههای
تراژ
وایومینگ
غده
غیا
پایش
برونو
##ولون
توحید
مسن
زیرر
حسام
ازادانه
##انگه
##ada
پروندههای
فراموشی
ریموند
خاد
لي
##موس
تنبیه
غیرانت
ارمسترانگ
باین
سلاطین
نداری
##ولههای
منتسب
طرفه
۱۳۲۳
مریوان
انفجاری
##پیشین
تسلیحات
دبلیودبلیو
سراج
هوشی
##گاران
##ثار
##ثال
اسپرم
بورگ
دیرباز
کنسرو
اندامهای
cent
حلی
پوزه
##ختگی
بازنگری
##جیبی
رحیمی
شارلوت
بوداپست
هرا
کولین
##ied
باطل
نیسان
##بیح
تاثیرگذاری
مادام
هارولد
۱۸۶۴
هنرمندانی
محرومیت
اینحال
پسین
اشفتگی
مستعد
حکومتهای
نمیگیرد
امتیازی
۱۸۸۷
لشکریان
oh
##خند
ورن
نیرویی
اسپانی
۲۲۶
##ings
تعیینکننده
فیروزه
لیتل
##uck
انعقاد
مايو
چندجملهای
نقشافرینی
غیرطبیعی
صدق
منظره
سانتیاگو
##اگاوا
iii
دايرةالمعارف
اپیزود
##نانی
##21
مستلز
مساحتی
ویروسی
بریج
پرستار
دي
قری
##کاره
خواهی
کیوتو
صدد
دامپروری
کشتگان
ادموند
جوشکاری
نژادهای
نیوزلند
ترمینال
بفت
شق
باکس
##یتور
محک
مانکن
بازگشته
جادهای
فوجی
عفونتهای
نصیب
دغد
فيود
ارتع
رشتهها
قیصر
مستلزم
saint
درود
استوان
##هرنگ
دوزی
مشی
کیهانی
سانسکریت
نامعلوم
کهریز
جمادی
پرخ
یونهای
گیلاس
ملخپیشین
خانقاه
نخبگان
بطوریکه
##ژیت
سیروس
۱۸۸۶
اسانتر
گچساران
سويیسی
صدراعظم
لیدی
لطفی
ترکهای
##ism
فرایندها
##que
محتویات
##ology
ماتی
هدر
هلو
##نمای
امتن
ایوبی
نامحد
بیخ
هراس
پرطرف
نهان
شعب
بردگان
لويیز
امانويل
برگردانده
##باشند
غزنوی
خازن
قوش
##پون
##ij
برام
برشی
براین
۲۰۹
##رفه
تیموریان
متراد
سینت
اهنگها
مورچه
مهندسین
دارید
خروس
دوازدهمین
سوءاستفاده
عظمت
جاستین
هراک
سرز
دیگو
تجسم
نوشتهها
۲۱۷
ناام
are
زباله
##فتری
منس
متد
##ونیان
صورتهای
تبلور
ملات
موسسان
میگشت
افتتاحیه
معجزه
بالت
سايو
شکی
غشای
##۴۲
##یتری
##گاهها
اشامید
##درصد
کیخسرو
گوارش
امتناع
na
فومن
گاس
یتیم
دوتایی
پرسید
##ication
کسبوکار
متوفی
تنظیمات
یونیور
نویسی
حشرهخوار
تاق
عذر
نگذ
##کد
##چف
##ــ
##یروس
انور
##lam
جیوه
##چرز
##ington
تاکستان
تلفیقی
احراز
کیار
لوتر
کشتند
کیفری
سغ
طری
بازنویسی
خدایی
بستک
رویدادها
مزه
مجرد
پرتره
##ade
میخواستند
کسروی
غیرانتفاعی
kh
جودو
##vel
شبهای
یادشده
شجریان
بروم
##ونیوم
دریاها
مولر
بسامد
واشنگ
aer
joh
بطن
نوید
کست
##چاله
##ابلا
پرتق
نشینی
گلبول
مارسی
سریانی
##نتز
مرگبار
تیرهای
مرغوب
دالاس
خفیف
نشت
نینت
##يوت
بهایی
گرانت
شیطانی
قرنها
امامان
۱۳۱۳
غیرعادی
تکنیکی
جینی
دق
##فلی
تقابل
##سکری
اتشبس
کومار
##کیر
##لوس
مقامی
##شکند
برجستهای
۱۳۱۸
2012
##ubl
اشامیدنی
بیب
باشی
ادگار
جدیدترین
##esh
سکولار
تیترا
international
fil
##وژ
##وگو
##lo
ازب
بربر
##اهان
##اتن
قطعاتی
کارگردانان
حاصلخیز
میمیرد
اپراتور
du
mag
rec
یغ
##حدی
سرگی
زیرک
زمانه
##سیسکو
ولایات
شوالی
اتمها
تظاهر
نوشیدن
ثالث
##گرن
معش
پرل
جنوبگان
۱۴۲
خانوادهها
قزلب
##نهایت
انعطافپذیری
موتوری
صداپیشه
المن
ترشی
نخجوان
تعالیم
مارپیچ
سواران
تراژدی
نماند
##الام
شهرکرد
##افزون
بدنش
الیوت
عمیقی
مراتع
زاویهای
نوت
درمیان
بادهای
نشدن
ماهانه
غیرمع
الکترود
تحصیلاتش
دانستند
تورنمنت
بهدنبال
not
##صن
بوگ
وزنی
ایلامی
##پذیرند
باکتریهای
بخواند
فلام
گوس
استریت
برفی
اوار
رسیدهاند
خلفای
هارمونی
2014
سوادکوه
نباشند
طغیان
##واروپ
بلان
بردسیر
وضعیتی
رفتهاند
دماغه
توییتر
پانت
##ابون
##بران
مجر
بعلاوه
نمایشنامههای
حسینعلی
کورین
int
ele
میگری
اشنای
رسل
مارسل
میخواندند
جزیرهای
زوری
اینست
##راها
فلاس
##اکیه
حیدریه
اسپنسر
پاسارگاد
##میش
ارتد
پژوهشگاه
دانستهاست
کابلی
رستاخ
روبرتو
معناست
یوان
##پهای
##عههای
اکست
کیوان
نزدیکان
مصرفکنندگان
##فلزی
امیلی
cont
البرتو
معتبرترین
جاسوس
##ووی
جنون
شهدا
##قیمت
تسمیه
شایستگی
نخواهند
چشمی
گرگوری
دارالفنون
اورژانس
دبلیودبلیويی
انتوان
بلژیکی
الموت
درامدند
اشکارا
تلفنهای
نیشابوری
georg
تذکر
40
چاب
##سیها
##ازو
##کرایس
اندلس
ماهیها
عروقی
شهدای
ضمنا
ازادر
پرم
کلسترول
اطفال
فصلنامه
provin
بزنند
مناقشه
mc
ساین
لش
##شکن
فرمی
فرگشت
کوخ
ناچیز
دمایی
##نف
##خانهها
خوانساری
بردارد
عبدالح
مادران
کریستالی
پرداختهاند
تنیسب
ناهید
پرطرفدار
فا
پاها
##زینه
خواهران
مظفرالدین
بیشه
کمپل
پیرس
##نتون
گیب
سامانی
پهنه
۱۳۱۰
الجزیره
مضر
##الاول
##ebr
میگذراند
سمین
##مبرگ
##قرم
##سیمی
##فرض
اجته
اردلان
نتیجهگیری
۲۳۸
تحریمهای
بازگرداند
مناظره
مجتهد
تندر
هایت
##2o
##خطی
##وزان
ارتشی
مستق
##وفیل
فروشگاههای
پاسخگویی
ابزارها
۱۳۰۴
##کوفسکی
mr
##چون
انوم
##ولوس
کشیدند
اشرافی
هیوستون
استنفورد
میبینند
ممانعت
##ضاح
##ریو
اوای
اطرافی
ایرانیها
طرحها
رضاخان
##سکوپی
پاناما
فرامرز
##ights
مورخین
معصومه
رابینسون
serv
system
si
حاشی
بازخوانی
##نتینو
پلدختر
ساعته
سایوز
مطلوبیت
کاوشهای
زیرساختهای
ms
بیگان
اهری
روزافزون
اذعان
عفونی
پیچیدهتر
اتلتیکو
فتوحات
شبانهر
جکی
ناف
۸خانوار
##bc
##اتوار
##ازها
بوهم
شرم
شکلات
مبتل
لیزری
تقلب
nov
sup
غازی
##19
##ابعی
##کوبی
اختیاری
درازای
گانه
##حون
بینالنهر
هیوندای
##خانههای
کانونی
##خواری
۲۱۴
قطعا
۱۸۸۱
نکردن
پورتو
سمفونیک
رساندهاست
دمکراتیک
ناحیههای
bla
vir
تایی
زل
##يوم
استب
نیس
کارگاههای
##کايو
##دانان
مشتقات
استانداری
##000
ليونارد
انصراف
عجم
##پزی
##پوس
نوو
##اخانه
تجسمی
نمایشگاههای
قرهباغ
البرتا
انتیبیوتیک
رالف
اویزان
##۷۷
##زهرا
##ریع
چهارد
ملبورن
##ولاسیون
میناب
پلات
ولد
##جواد
بلندتر
نتوانستند
بازگرداندن
انکارا
راجرز
##فورماتور
معشوق
ساد
##کشن
##dr
امال
گیگ
الیور
پاکستانی
نظریهپرداز
مهاجرین
برهمکنش
جزیی
##اونی
##by
تنسور
هیج
خوارزمی
صوفیان
کوزوو
قزلباش
##پاد
##جاست
اشفته
روزگاری
دومینی
##نشده
کارهایش
##تینمنت
##irect
راگبی
انبساط
هاردی
کلیوی
۱۸۶۸
۱۳۱۲
197
۱۸۷۸
عشقی
قصبه
مرموز
کامبوج
شیلد
##fr
البی
۱۸۵۰
سنقر
گلزنی
لوکوموتی
۲۲۴
خلخال
فرناندو
واشنگتن
خرا
صبر
##انوردی
فروید
افشاری
قانع
زناش
زنبق
همکاریهای
مونرو
مینمودند
نینتندو
##جور
استوری
قرم
گرههای
۱۰خانوار
##ابیان
نمیاید
احتمالات
کوشید
انسانشناسی
فضاپیما
برحسب
sant
تویس
صور
هگز
کونگ
میوههای
کنتی
##وهید
متعارف
مزاح
رقصنده
دیلم
ختنه
مبحث
جامه
شفا
فونت
##ترز
فراک
دوبر
اقداماتی
مشاوران
القاعده
تنیسباز
ویم
پریش
##سس
##خیم
۱۸۶۷
۱۸۷۱
ماژور
sk
ننگ
##نسیا
استوا
سرامیک
##اعه
باراک
##ena
زنانی
طریقت
رودخانهها
موازات
مابقی
لوید
##گنی
##ude
نیاورد
کیلی
پشتکوه
بوته
انو
نیوک
نامبرده
۱۶۰۰
ازمایشها
۱۸۹۱
رومیها
تندرو
mich
##ینسکی
##ابها
اوازی
فرگ
فراوری
الط
##وشکن
مانگا
بالهای
سلف
ماونت
جرایم
##ارشا
خریدار
طوریکه
بهاءالله
35
مژ
##li
##سیوم
ایرباس
اسکور
سیاهپوست
خوشحال
مزای
ایزدی
رونویسی
قضايیه
روغنی
مدرسهای
گستردگی
##سها
##we
##فراغ
۲۰۴
ابرو
افرید
##ستهاند
تهم
پژوهشکده
خردسال
منحرف
ایینهای
دیری
صالحی
قروه
هلا
کاشته
##۹۲
##شاد
##شمندی
اندیم
بالد
چهارچوب
شبح
##ater
۲۱۸
حیطه
امیران
اراگ
اریا
بویه
خیره
شیره
هالو
چید
##باح
##یتها
پرور
##ارتو
تعاونی
داون
هزینهها
معتمد
زیارتگاه
cm
mg
pp
حشم
شوت
قفس
گیتی
سانفران
گنبدی
تپهای
تابلوی
روکش
منار
عمو
ترمو
پیشفرض
سپیده
مشهوری
نیکولاس
بسازند
ریزشگاه
دابلیو
log
تبه
عایش
لگاریت
۹خانوار
میدارند
##خشی
مجموعهها
سرگيی
ناارامی
bas
واتی
##کست
##یتسا
مدح
شمع
هواپیماها
یخبندان
os
ثابتی
##ho
##ومین
ابسنگ
##اووس
مملو
کانن
موضوعاتی
زینب
چکی
##ابرد
##زیل
همخوانی
متقاضی
##نواز
جلالی
روسپی
ییلاقی
ذوق
رجایی
##۵۷
##pa
##کافی
انجم
منظوم
نگهداشت
واجب
اناتومی
news
صفا
##۹۳
##اندهاست
شهرهایی
هرج
اقام
فرانچ
پروپ
گیج
کنترلی
کورن
پارکینگ
وینسنت
۱۸۷۶
مستعمرات
ber
ساف
وحی
##ler
باط
##رکه
ایگل
##دیو
اسپیر
دیدند
##ico
شوخی
سوختگی
میکروبی
بنگال
فتحعلیشاه
rf
شامپ
##لنگ
##پیا
میجنگ
استوانه
بناها
برخاسته
سردرد
محموداباد
حجازی
رحمان
amer
ساترا
لاریجانی
عاقبت
سمب
##mer
##86
پیکسل
##گانگ
##ویسند
مثابه
سینم
##نته
##ates
##سکین
۳۱۰
قبیلهای
خسارات
ماکسیم
ظهیر
مترادف
بینالنهرین
lin
جامی
نرد
کوزه
##وزو
دیگرش
۱۸۸۴
۱۸۶۵
باقیماند
نگهبانان
اعماق
رسوبات
ازادراه
فنجان
ملیت
رسوایی
مارپیچی
میلیگرم
سفره
رستاخیز
دد
نری
##عو
##لاج
سیالات
۱۷۳
ردههای
اندیمشک
##صاد
انتح
تجلیل
۱۵۲
مفاصل
۱۳۲۲
۱۳۱۷
غریبه
cro
##جمان
امداد
بیزان
هیست
خطبه
تعویق
طبقاتی
متغیرها
تسهیلات
فضاپیمای
ft
بندهای
جات
##ارود
##اریکا
##اشن
##گیرند
رویس
اردک
دریافتی
۲۲۷
ابومسلم
وردی
استفراغ
کارزار
نماهنگ
بارهای
ناوشکن
مصدومیت
زاکسن
زوریخ
ho
دکل
فاسد
##17
برک
ادا
##همپتون
قطعهای
۱۳۲۱
قدمتی
استعماری
پلتفرم
واکنشی
her
بله
دمی
عیب
کیتی
یاهو
##ux
فروم
تحریف
##ایلر
##نزو
فرستادند
ev
صل
نايل
##ولند
قویترین
زینتی
محتمل
یکپارچگی
استحکامات
کعبه
lake
قوا
وکل
باسو
نیامده
خیار
لغات
نتواند
اسطورههای
ارتدکس
جردن
زنگی
قات
##کاب
##ودان
نیا
##اشات
##اکتیو
افشین
تیمش
##ايب
پاسخی
محمودی
##خواهان
بایگانی
پناهندگی
ستونها
داف
۴۲۰
##ولها
بودی
توف
بوين
##ندها
فارغالتحصیلی
طرق
چرخهای
استثنای
db
je
نکا
##ثق
سیستانی
بخشیده
##واژ
بزرگتری
جایگاهی
گلاب
##وکاست
گشتند
پدیدهای
انسولین
انارشی
محافظهکار
استبداد
jun
شریان
کینه
##گات
##۹۱
##گیرانه
##نتین
گوگ
ناوبری
دراماتیک
ارکان
دیلمی
پدرو
تردد
حلقهای
مسلسل
سانفرانسیسکو
یوم
براوردهای
##اندز
نشات
فروغی
مسيولیتهای
نامیدهاند
قیمتها
۱۸۷۳
فلیکس
hill
بشار
زکری
سندر
کاتی
##پاش
##حم
اماتور
النا
دیس
گرامی
ماهها
گفتمان
##بودند
سختافزاری
واژهها
۱۸۸۲
استثنایی
گيورگ
ty
you
وگاس
##۴۱
مدف
بوس
بالتیک
تشبیه
مخروط
اتلانتیک
زناشویی
شاک
لارستان
گلس
##دورف
موزههای
پسند
مرند
زدایی
بیدرنگ
اورتون
ta
ur
vol
سانی
فازی
درن
##ویلی
سراز
##الیک
بیطرف
دستها
##خوف
سفینه
جوانه
تربیتی
بیداری
انطباق
بويینزهرا
fall
rna
مومن
توبه
##گردهای
ایهی
بیضا
##ههایش
ادویه
برگه
موسولینی
اسمک
روزنامهنگاران
عنصری
طلاب
۱۳۰۷
##ave
ابراهام
نعمتالله
##formula
دانهها
براق
##اریس
اتباع
جنایات
##اصب
۲۴۵
موناکو
مقالاتی
سپهسالار
نرسیده
تصدیق
الکساندرا
فلاسفه
wal
خزندگان
قدیس
نيو
##۸۲
##پژ
##ki
دروی
قرعه
دیجی
دارن
مرادی
فاکتورهای
جابهجا
گرامر
##burg
طوطی
کرنش
ابزی
شیفته
تعجب
خواهم
##نوشته
گوات
ناامید
خوناش
پاکی
رضوان
##شافی
مظنون
بیگم
pers
نگرفته
##واند
##یمان
چهارراه
سبد
خیز
##hel
خلاص
خلاء
۱۸۴۸
پاراژن
قلعههای
ژورنال
رامین
ندان
کاگ
##ذری
میخی
کناری
مشیر
مردمانی
سوخو
گلزن
ایالتها
گریگوری
۱۸۸۳
۱۸۷۹
سويیچ
ترانسفورماتور
خشایارشا
عایشه
##رزی
##ارشی
##ریل
منگن
##وزد
رایانش
لبنانی
دقیقتر
استعمال
ویروسها
بارسلون
رخت
لستر
کورش
##ارق
بروی
##وساز
##نتال
گنجه
لغزش
بیاورند
همسری
گاردین
تنباکو
ارتساخ
طایف
##وفه
سالنهای
افراسیاب
گوشهای
##ower
قوانینی
اکسباکس
عناصری
کنسولگری
منشعب
باقری
کنتیکت
mor
قاسمی
##روش
##دیک
تجم
کانتری
گاي
##ke
۱۴۳
پاپوا
##ضلعی
پاراژنزهای
sn
دالی
عجیبی
موید
مانور
المانها
سخنرانیهای
غیاث
##کف
##ual
همسان
سرانه
مهیا
##وير
نقشهبرداری
فامیل
دنا
عسکری
قای
چله
بوجود
##وبو
سباستین
##وتراپی
جذابیت
انومالی
var
شوید
ليوپ
ناج
##شنال
سلماس
کلیبر
تکانه
۱۶۲
##idge
جعل
شایعه
قویتر
مضامین
پیکچرز
سیزدهمین
گلپایگان
نامحدود
ایهیاسو
بکند
گاندی
##تک
##گانش
میج
برامده
مرض
##سترون
##نوف
سمبل
نمیرسد
اقیانوسیه
ابرقهرمان
ژاندارم
طویل
یوبی
##صور
انض
اهکی
##وندگان
نشوند
نسلهای
ورزقان
بودیم
نیاکان
۱۶۳
هندواروپ
یونس
پذیرای
مزین
سکنی
##فوظ
ناسیونال
##لون
پرادش
##ولیا
شکمی
پیداست
پداف
رولز
حايری
لحظات
##۴۳
##فتح
شهرتی
دیست
##بیسی
کما
chno
ایزاک
حجاز
افسانهها
حلقهها
وورتمبرگ
soc
لاور
##وغ
منب
جناب
رسالت
مغولی
تلاشها
##پنها
اتابک
یخی
##23
متولی
##وته
۲۰۳
بازدهی
ریج
غیرمج
دانگ
بندری
کریستینا
شاخصهای
قناتهای
اصالتا
sal
گانگ
متب
پیکره
مصلحت
مدفوع
خج
چاله
##ورگی
تاو
##وسک
مرکبات
##وشان
میانمار
شبها
۲۶۵
گنجشک
##نفره
port
گاب
##وقه
اوازه
فراورده
کرانههای
رمزی
##پناه
کوهنورد
##وویچ
میادین
##اموتو
##ابایت
کلیس
##يیسم
جدیدتر
ماهیهای
لاکهید
رفاهی
فسا
چاد
##uro
##ارز
##ردان
اوپن
##موده
۱۴۰۰
باغها
حواس
روبن
تامسون
پیادهروی
مجمعال
john
تیتراژ
تاند
زشت
ژنی
##سنج
##فک
براه
دیزل
امیراباد
ازادیهای
ابادانی
عنایت
ant
اینچنین
اجتهاد
med
گمن
##cr
تودهای
##برون
##لوا
ستوده
بتنی
همسایگان
دايرة
اشتراکی
نیوهمپ
مبتلایان
##تیوس
نیای
قرنیه
##فیزیک
کلیدهای
۱۵۱
اکتشافی
اتاقها
پیامبران
علاءالدین
هوه
چکش
نفرات
کماکان
افکن
افغانی
فرمود
ليوناردو
ناخالصی
micro
اودی
درههای
نامهها
##کسن
فعلا
سنتور
##ani
۳۴۰
ذهاب
۳۸۰
کاوشگر
پردازندههای
دکمه
اتلانتا
زیرراسته
شفت
الاسلام
ایجی
مقوله
ادری
##شیده
کوهرنگ
سهشنبه
دادهای
نتیجهای
درامدی
متعاقب
حوزوی
چاقو
وزنهبرداری
31
bur
febr
بوه
دورتر
میداده
##ush
گماشت
دونور
##ove
سوسن
مدیون
بهميی
اقلیتهای
طعمه
رینز
قاش
##وویتسه
دربردار
ادین
کوبی
##وزیسیون
طلبان
نانومتر
##امزدا
سرحد
مدام
ابدی
پلاسم
مدرنی
بیرم
موسیقیدانان
فانوس
روشنفکر
les
کوله
##پره
##قط
##ونین
##استون
##فراز
نامها
##کلس
علفی
##ادران
۱۶۱
ترکیبهای
جاوید
کشتیرانی
سرمایهگذاران
چهرهای
۱۳۱۵
۱۸۷۵
چناران
pd
زری
لج
##۸۴
##۲۰۰
براي
ایچی
بیابد
نواری
کاریک
رحمانی
##عبی
##یتز
الساند
##تمندی
پرداختن
سیاستگذاری
دنبالهای
نرگس
حواری
منصوری
اسبق
ass
خنککننده
اهورامزدا
تاپ
بیسم
نمین
باربری
چهارگانه
مخارج
غیرفلزی
فروغ
پلهای
مفاد
گیلکی
تریاک
گستردهتر
تفرش
اهریمن
oper
ایدا
ثلا
##۸۹
امانت
##هرود
مشک
##ارتا
مصط
کاذب
##osa
پستهای
rev
راحتتر
mer
یکه
اعیان
##شیپ
دولتم
۱۵۳
نیازمندی
اجرام
گیلانی
سرخپوستان
چاههای
نانسی
##berg
بطری
ویراستار
نامطلوب
cam
east
بسر
رانی
رجی
##سوز
##زامی
استایل
##وانگ
دیود
نوارهای
حسابی
مثالی
۱۱خانوار
محصولاتی
ویژگیهایی
off
دبیرخانه
۱۸۷۷
عطا
اسداباد
مازی
۶۰۰۰
##ماق
##64
گرن
تره
نشاند
۱۸۱
##ars
شیراک
تفاهم
پایینترین
خوشنویسان
طلبی
فولکس
۳۷۰
هیدروکرب
افسری
۴۸۰
مستندات
مشمول
دورد
ونت
##ومون
الرح
پیج
##ark
رزرو
کیمیا
اشتیاق
انطاکیه
بلاک
##۸۳
##ila
کاران
بنش
پوسی
##ient
##uz
اینتل
شهربانی
اسکر
پایتون
اولد
میرسانند
##تمام
افتد
کاشف
ماکو
مظهر
تویسرکان
بوينوس
غیرمجاز
سانگ
ضح
##بوری
##گم
##hr
همو
ابوط
مجار
مجرم
اجساد
عرق
dec
پرینستون
کمبوجیه
فراکسیون
صمد
طلس
یوت
استارت
##یدین
فرهنگها
##نوازی
پلیمری
عثمانیها
داوطل
کاریکاتور
cy
تکا
جند
جولای
دسی
صراحت
گریم
##غری
##90
میشویم
هرمی
احمق
سوفی
قلعهای
رنگامیزی
قمار
##ute
لرزش
دروازههای
۳۶۵
مبلغی
ابوعلی
##دور
##۶۷
##ستاد
بهاری
سال۱۳
شرع
کلیسایی
لنگه
چهاردهمین
##ایو
استرا
##گیز
##وبه
##دراز
##ماء
پارینه
برخورداری
قضات
سهامداران
february
وفور
##بوت
##عر
بافر
عمار
##یدرضا
منجمد
تاسمانی
بوندسلی
حفاظتی
##her
بهشدت
ایفون
##یشناسی
بیوه
##واو
باروک
بالاست
موجهای
اموزشگاه
ازمایشگاههای
اینترن
گردشگر
تمدنهای
ha
بانه
تت
رگر
غلی
##ساعت
##اقبا
##برگر
مدور
جنگید
هورن
درازا
##۶۵
##گهای
سرن
کتابت
شیوا
نورالدین
اردکان
درمانگاه
میخواهیم
هولوکاست
لوبیا
مولفههای
میزدند
tre
نغ
##ular
الوند
معقول
ارین
دوغ
بیگن
##اختر
##اصغر
بالاد
احمدشاه
ایستاد
استیضاح
بغدادی
سینی
##الف
انژ
##ولات
##روفی
بدخشان
حسابر
##رژیک
موقتی
نگهدارنده
نمونهها
اصطکاک
اهنرب
استنباط
صوری
لژ
چاو
##ودهای
##way
اتشن
پیشوند
برخط
تکاب
عصاره
قاعدگی
تعهدات
نوسانات
section
high
ve
تامل
ودر
##sd
میور
##اسدی
ایسی
دیپ
##اپر
##کلر
افول
راهرو
مستقلی
سریالی
گفتنی
جلویی
۱۳۱۹
احتیاط
دهقانان
iv
sl
تمی
##اتها
دیبا
دولتاباد
نیمروز
بردگی
تدبیر
##فلوان
۱۳۰۸
۱۳۰۹
ژنها
نایبال
ابوسعید
صرع
سرازیر
تکت
مکی
وولف
گولد
دربی
##وتها
روستاییان
تفاوتی
ایستا
تیرانداز
۲۷۵
کوتاهترین
eng
میگذشت
رامسر
واتسون
گوارشی
جنجالی
ناراضی
لوکوموتیو
ژل
##لتون
##ois
##قاق
##ضرب
##شتدت
##نگتسا
ویز
مدد
شرلوک
روزبه
اغوش
##لبانی
روانشناختی
گوشههای
کربنی
مونث
۱۳۰۵
وجهی
واتیکان
بطل
بشدت
شاو
غشاء
##line
محفوظ
مجنون
شنود
لیندا
مشروعیت
2011
نیکلای
مفرغ
رودریگز
پرتقال
غیرمعمول
مخصوصی
##ازول
سیک
نقاب
ترن
سوژه
توانند
اذرم
##انتس
##chn
دراوردند
اشتیانی
استوانهای
فدا
##تکه
##مم
##ردانی
بیث
بلاد
##سرایی
نهفته
بازیکنی
##نوو
۲۱۳
گازها
متعاقبا
۱۳۱۱
عطار
texas
45
mid
تیری
مانه
هرو
واق
میاندو
نامح
دوگان
محمدخان
مردمشناسی
برنامهنویس
ستارهها
تشریفات
لطیف
انتحاری
اکی
بوریس
##۸۱
##المت
راکی
بیوت
رویان
بیشماری
اردبیلی
مبادل
۲۹۰
اندرتی
خاتم
بروکلین
فهمید
کرتاسه
جسیکا
رخدادهای
سرلشکر
فانی
کثی
##گره
تنشهای
##الدو
خاکهای
مادون
افتادهاست
درمیاورد
بوکسور
چیرگی
اناهیتا
out
تنگی
قذ
یوشی
##گوس
اینصورت
##اقلی
ترتیبی
اتلاف
پررنگ
بازو
کوثر
جامايی
۱۱۰۰
رهن
سیاهچاله
رومان
تشخیصی
ادعاهای
یونانیها
اسطورهای
ببینند
زاویههای
لعاب
میاندواب
ملوک
##اکا
##شتات
چشمهای
جلفا
اتفاقاتی
سرکه
عینک
باتلر
ضحاک
60
نسیم
پپ
##يیل
میکس
دهنو
سیدعلی
۲۳۷
نصیری
اکسپرس
گزینههای
اشپزخانه
cn
tw
درگز
##ونلو
##ترو
##قیقه
دهل
تجارب
نهادی
کوهپایه
روميو
مرزبان
وایکینگ
##بازان
مقدمهای
متفکر
زوای
هایشان
##شام
##جره
مدلی
اتنا
##هماهی
پارکهای
پیوستگی
گیلانغرب
۱۳۰۶
##ull
اعتقادی
گوشتخوار
شیشههای
برانگیخته
bel
es
شپ
ضمنی
چریک
##خوا
درین
##وراس
ارنا
جوادی
سخنران
mont
a7
بتو
##پتو
ارشیو
ابوه
سعیدی
هانری
تمایلات
قدرتمندترین
متابولیسم
بطلمی
cast
جالبی
سغد
شیلا
##ction
##یداد
##کسین
پنجرههای
##زمینه
موردی
اشتاین
مکانها
##اتاکا
گنب
الفبا
غرور
##طرفه
واعظ
bi
ob
کوا
باتی
همشهری
متریک
##وبل
ترنر
ورنر
ماهه
##افتاده
مخالفین
##نمونه
جریانی
منگنز
هندواروپایی
80
kn
شنگ
پاف
کچ
##ضم
برمه
تودههای
میکروف
##اکه
هیون
خاکسپاری
روانپزشکی
پاسخهای
##iver
مخلوطی
کریستیان
chem
یاختههای
bre
۸۵۰
##بولی
الین
##فرین
بوف
بدوی
زمینها
ملزم
متعادل
مازاد
توپولوژی
۴۴۰
چالشهای
##able
کاردانی
اجماع
ريوس
زبیر
شوال
صمیم
چطور
هممرز
توفان
موتس
پراب
گلخانهای
شوراهای
ولایتی
سامانیان
##پلر
خاندانهای
دیماه
فاری
درز
نظارتی
زیرگونه
کلوپ
بزرگش
ریختن
میگیریم
پلیسی
زردالو
رانندگان
کاسپین
ترجمههای
مبال
##فوس
هیولا
جووانی
استراباد
منظوره
منصرف
رمزگشایی
کوهنوردی
بهبهانی
فراهانی
دلس
گوری
##رفت
##طره
##ازا
توام
موف
ایزن
مرخص
##افری
علویان
مستندی
گوتیک
مغایر
کاتولی
پژوهشها
ضربان
جاسک
حاتمی
نواخته
هرتز
ساختهشده
حضوری
مورفی
ژاپنیها
انقلابیون
بکشند
اندرتیکر
بتی
واو
دراگ
برگردد
روبی
مرکوری
ادریس
بلخی
تقوی
قبله
مینیم
شهریاری
شکارچیان
هولمز
حبیبی
فتنه
نون
نگری
ونگ
مرشد
خواهید
۱۷۱
پایهگذار
گیلبرت
باستانشناس
سریعا
کاستاریکا
مونتگ
فنلاندی
park
کاووس
اساطیری
یادداشتهای
ریمی
##الاسلام
ادن
مهتاب
گفتاری
ساسکا
پرندهای
الومین
تعمیرات
ثروتمندترین
مسجدی
جلا
##ويی
##بلاغ
##فرید
##89
انفلوان
ابهر
تجلی
تورب
۲۴۷
والاس
لغوی
ریکاردو
تناوبی
georgia
تهماسب
پاند
##يس
##24
کنراد
احم
##ايولو
گلابی
مغذی
میگوییم
۲۲۸
##مالا
لایهای
##iana
ادراری
ناپایدار
چرد
##ضلی
##ونسو
##یمور
مسند
ابط
مشگین
ولیعصر
##ated
۱۰۰۰۰
پرافت
ادیسون
2015
خریداران
میتوک
عالمان
منزله
پیچیدهای
ورشکستگی
فولکلور
will
جودی
عنو
برچ
بداند
ساختهاند
ماهان
قدردانی
الیا
برجستگی
##رایب
استقامت
گشوده
میریزند
چسبندگی
سرزنش
رزیدنت
ایوب
دیویدی
ارگون
##گردند
کلهر
رسانا
توانا
۱۷۲
فروهر
رایدهندگان
تشع
سادهای
شاعرانه
اریکسون
هانتر
تناوب
مقتدر
رالینز
نیوهمپشایر
jan
رقی
##ارس
اینبار
نیچه
متل
۲۰۲
مدخل
کرات
زیرشاخ
##لولی
شرکتهایی
تکلیف
۲۴۶
##سکیه
یارانش
نمایید
لحظهای
زامبی
فرصتهای
ساسکاچوان
mas
تزاری
##۹۴
مانوی
المع
ایستادگی
جامعهای
ناکامی
جولیا
برگرداند
کلانتر
نداریم
حیرت
قا
بهخصوص
##ورون
##هاوس
مجذ
پیشکس
راهها
##تافت
رودکی
ستارهشناسی
معلول
تروا
بتل
فید
کالد
گریف
##گنج
راور
نوشهر
مروان
۲۵۷
برادرانش
تيود
فرانسویها
جاندار
غضروف
مادل
##za
##15
مساعد
افشای
شورشهای
حمیدرضا
خوانین
رودان
سفارشی
چشمها
مدلها
اپید
ترانهها
بازرس
تامپسون
خیل
سوشی
هلس
ولید
##va
##قهای
بهن
ارانای
سیه
##وریکو
ابه
اشمیت
هستید
سنگال
۲۲۱
اژدهای
فراخواند
میفهمد
تکی
طاع
لیا
وینی
##رام
##خری
##اراتی
ایرویز
قرق
داشتم
کنکور
مکزیکو
گفتم
##ision
درامدهاست
2018
spr
##shire
زیمباب
مکاتب
##رکننده
چریکی
عنبراباد
قال
##iet
##خره
##ادلی
همبند
اهنین
دانشسرای
سهمی
تعصب
عرص
##arch
ژانیرو
گزارشهایی
درامدهای
##طرفی
سگهای
ازمونهای
۱۲۹۹
گمانه
مهدوی
پروستات
کاتالونیا
اینترنشنال
ter
مندر
هاج
ژوست
استنت
##اير
فارابی
همراهان
طیفی
##تنها
پشتو
سرمایهگذار
وارون
تراکتورسازی
مجمعالجز
دربردارنده
dc
دکور
##هرمز
ایول
سازندگی
##any
ملکش
ممالک
لواسان
تابوت
۲۳۶
پراکن
مجسمهسازی
##طلبان
زندگینامهای
اهمیتی
زایی
زاینده
مومی
هامون
##تیسم
سرگردان
##کوویتسه
هیبری
قطعیت
۱۸۶۹
افریده
چیل
##لث
##۵۱
##فیت
میترا
##زارهای
پیشنویس
فعالیتهایی
پیرانشهر
سنگواره
مینامد
بافتی
استانداردسازی
انیمیش
انسداد
هافمن
award
33
##جیر
##wood
##وبات
خطاهای
کوچکتری
مارمول
گیاهشناسی
عصبانی
تکنولوژیهای
گزیده
یونیورسال
سغدی
زیمبابوه
kr
عیار
یقین
##ینوس
برس
برکت
##انیها
توکلی
روزولت
گلش
قبولی
##ona
فارست
قلاب
لوین
دیدم
مذکر
ویلن
مقدسی
مبارزان
عکسها
زاهدی
دستورالعملهای
مسموم
بفتا
پیشکسوت
خلو
زمز
هذ
کپنها
##کتهای
جایزهای
گوگن
کریگ
مایا
گرانقیمت
اشتباهات
نکردهاند
تعلیمات
طرد
##۵۳
##پاس
استور
##اهمیت
تراب
پیان
رسوبی
مکانهایی
متمم
دردسر
شاهدخت
میافزاید
div
دانته
##field
رابر
ابا
##واکی
##انتری
بخاری
ناشران
قصههای
سمیرم
داوطلبان
عاص
ابخو
مرجانی
دریاچههای
۲۱۹
۲۳۲
هاروی
۱۸۶۶
سایمون
میوهها
دراوردن
گچبری
province
میتوکندری
ala
فلاح
گوا
##تیز
سیارهای
##افکن
بنویسد
راهب
ریچل
مولکولها
لردگان
چسبیده
ps
صافی
##par
موومان
پرورد
شرکتکنندگان
تقطیر
۱۲خانوار
سیستماتیک
طرفداری
تیرويید
##اویا
لحن
ماهیچههای
جرقه
ملکشاه
دفعات
بفرستد
مطلبی
سرپوشیده
may
زایش
##يال
##زمانی
##الار
##ابیر
خودگردان
مقالههای
##التس
گوشتی
سریعترین
stud
هیدروکسی
لوییس
ساماندهی
##پیوندند
سیامک
پرافتخار
36
جابر
فسیلی
کاله
##۷۲
دیلی
##tte
##رتز
پروتکلهای
اوگاندا
بازپسگیری
لنفوسی
کارگزاران
مشایخ
کنسرواتوار
کوخرد
مازیار
اذرماه
عنوانی
داعی
فورا
لاف
لنک
وث
پورش
##ولتا
ابل
##نجر
کلد
تلمود
##پرده
گلشن
##lex
تسریع
زي
غلاف
فوج
##ثل
##ولز
##برز
مقارن
کماب
احتس
فقرات
ایلخان
ماشینها
##ste
۱۸۷۲
متمادی
دمکرات
زیل
غاز
##چز
##uch
برگشته
تکههای
تیوی
توپهای
یخچ
هریسون
زنگنه
دانیال
تحریریه
langu
گلبولهای
if
دجله
راندن
کبری
##ola
میا
##اردار
اوتو
اسنو
مدیت
محمدجواد
جهتگیری
۲۲۹
شعرای
جفتگیری
الکترونهای
علاقهای
ارگانیک
درباریان
انزیمهای
بذ
قدی
چاش
##دستی
##ظهر
راشد
امگا
پایبند
دادگاهی
غیرمنت
نمیخو
۲۱۲
۲۴۲
سیاهکل
پذیرد
اپارت
قتلهای
پانزدهمین
واترز
احتساب
قریش
##تع
##۷۹
توالت
گروید
ابریش
##تابادی
مردانی
کریکت
سرمایهدار
تختی
انباشت
خشتی
ورک
پاسی
##سلا
##ینگی
بهنظر
##الای
میچل
##ختگان
بخشش
سوفیا
علیاصغر
پذیرفتند
خشونتامیز
کاندیدا
حیدراباد
خویشاوندی
موتسارت
cat
تفا
چوک
##لیکی
##اترین
##روا
تقلیل
سافت
نرها
رزین
حجمی
2010
غلامعلی
خواندند
اردوگاههای
اوکراینی
قلیایی
اورتن
بوندسلیگا
قذافی
بپذیرد
زینت
صخر
ژور
##چیا
##duc
##انلو
##ستاق
اوش
توازن
انتساب
بدانیم
بارگیری
گرفتگی
##کوین
۱۷۰۰
محدب
جدای
کاتب
اسماعیلیه
گوانگ
منزوی
گذرانده
ba
ke
گلا
##پوشی
##ارث
برنت
گراز
۲۵۳
چالدران
سايوپ
فاصلهای
ضرایب
فاي
##ثور
بریدن
روال
اوچ
۱۳خانوار
##بانوی
نشانهها
مطیع
رکوردهای
تزیینات
ترانزیستور
hiv
lib
بژ
ببخش
خلبانی
##۷۴
انژی
تازی
جمل
۲۰خانوار
جانبه
تشکر
همسران
درمانهای
مناسبات
سمپ
بخورد
جنگندههای
فلاندری
چیدمان
رفیع
گدار
##75
روسو
متصرف
مربعی
بعداز
سکاها
عقلی
##ima
مجسمهساز
war
ربانی
##25
دردن
روایی
سرامیکی
خانات
جانگ
سفالی
مشخصههای
عمدهترین
ناتنی
اندیکا
وزرای
cas
kar
شلاق
عری
لد
##mp
میو
تلاقی
عبوری
##ese
۲۲۲
##وپاتی
توصیفی
اروپاییان
سپهبد
پرکاربرد
cc
شوق
یز
##یاد
##۷۳
دراید
اوايل
ایینی
##وسکو
کلمن
##گواری
گفتگویی
۱۳۰۲
الزامی
سراغاز
ارغوانی
ندار
##نور
##۵۲
##شونده
##زنده
##ner
##قفی
ازین
##اسیر
کلوب
تخمیر
تشابه
حلزون
انرژیهای
ناظ
نمیتوانی
میاوردند
فیروزکوه
خضر
شتم
طاووس
غارهای
فاح
گچی
##oy
بهس
##ویید
اسلا
##گیران
هیدهی
خوشهای
پرتوی
قطبهای
مجسمههای
فوتبالیست
ol
داند
فسیل
ونی
میرک
همگن
مناف
دستش
مصریان
##چیزی
##ووات
کربوهید
فوربز
تایلر
##مردان
انتروپی
اسماعیلیان
منقار
بیضوی
عادلانه
خوناشام
ملکشاهی
حکاکی
خاله
فاع
وشم
کز
##دانه
یکتا
نمکی
زندیه
دولتابادی
تعریفی
۲۵۸
۲۶۲
گیاهخوار
پیروزیهای
وینتر
امیگا
نیکولا
کینگز
شربت
اسپهبد
کلیساها
back
جدال
ستوان
یاکوب
مجامع
مقصر
استفادههای
کلیر
بلشوی
کیفر
رنگار
استرلینگ
گرمسار
اپوزیسیون
نرمافزارها
ناخودا
درخشانی
۱۸۳۰
گودال
خوشبخت
هپات
چینگ
##سترا
##ستانه
اوغ
التر
شهره
نوشتند
۲۱۱
شناختن
سوختن
گویشوران
سوزاندن
بخواهیم
کفت
##work
##اتون
##نیوم
ابجو
پارچههای
##ator
اردستان
القاب
دندانپزشکی
پذیرفتن
کمونیستها
پیاچ
خلبانان
بازگردانده
عذرخواهی
ra
syn
بچ
مفق
##سبرگ
##ks
##خراش
درسال
انک
##ولوشن
##انیده
مجلد
عمدی
شرور
بنک
عبادی
مادهها
گزارشگر
عدل
کتابخانهها
گزین
افتادند
##اموزد
غیرمنتظ
بامیان
هاله
چکا
##۶۱
##شمی
##out
فراماس
الل
اشاعه
اتیلن
سلب
پردازی
پلکان
سکهها
اشخاصی
بیگانگان
bdi
vel
شاند
لپ
پریم
##dp
##قش
##ورین
بیطرفی
##اکورا
##عهدی
هوپ
۱۳۸۵جمعیت
نگاران
ترانهسرای
سعود
##ida
2016
نشانههایی
سلیمانیه
معاینه
عذاب
عبدالحمید
##ساید
##لار
##روع
نیام
باشم
شکلدهی
باغداری
اتاقی
۱۸۷۴
سوارکاری
تانکهای
منسوخ
تیسفون
بجا
ساتر
نامتن
##اپو
تعزیه
مرتض
حقوقدان
روحانیان
اختصاری
۱۸۴۰
هویدا
تابلوهای
نطنز
رگرسیون
تسن
رالی
چیت
کباب
##ble
##ارهها
مدیری
##بالان
شروان
گروو
اغتش
داشتهباشد
شاهر
فیث
تاکتیکی
بهمنظور
لنگرود
##ough
##ansas
دیترویت
##بسته
##ook
##ارزش
امثال
##هرست
##وردن
کیانی
مدیرکل
فروشندگان
منصف
اکوسیستم
##طلبی
سايوپايولو
دردناک
der
ندهد
##vd
##ینگر
گرهها
کلوین
میراند
##ادرت
متنهای
۱۳۰۳
اشکارساز
اقامتگاه
عبدالرحمان
تخلص
ريیسه
معالجه
جزر
شگر
##اکری
##وباک
افندی
##ita
۲۳۹
۲۸۵
مارکسیسم
قیچی
۴۳۰
دروغین
جوزپه
ویدیو
خادم
موفقی
لگن
لورا
##14
موزی
ویسک
گروی
##اکار
هرساله
اقلام
##ايه
طیب
الیسون
تیک
۲۶۶
بیستمین
۳۲۵
الگوریتمی
تامیل
2017
مدیسون
ارایشی
ساعتی
غزالی
##روتيین
falls
گاوم
##fer
##ger
دران
ازنا
همخوان
رواق
محال
نیوتون
متکل
مشعل
##افقی
اکبری
بادگیر
کریستف
صورتیکه
مونتهنگ
رامهرمز
بازتابی
فیبرهای
سیستمعاملهای
ارزانتر
بهمعنای
بهارستان
استیشن
##ونتی
دوقل
میلز
توانمند
چینیها
دالان
شگفتی
کتیبهای
وراث
34
جلی
شغال
چاقی
ازدی
روي
الدر
ایشی
گلدان
##سباخ
قدامی
پلاتین
باغچه
تراکنش
۴۶۰
گامهای
انستیت
شانزدهمین
اقتصاددانان
گواتمالا
ناخوداگاه
رونی
##رمو
همگرایی
اعزامی
هستههای
بناب
شمارههای
بهعلاوه
کافر
شبکهها
ناخوش
##شوقه
iran
نیکولای
name
pal
شلی
عک
هانو
پولیت
##هاي
مسعودی
احیاء
عبدی
مرکزوار
لیسب
فردای
دریانورد
مبادرت
تهیهکنندگان
مهرههای
##try
##گلان
نمیکردند
کارناتاکا
طاعون
aut
ببری
رقیق
شفق
کیمی
گیشه
##۷۱
معز
معشوقه
شهرستانها
کلیک
##ican
۲۲۳
##let
۲۴۸
مادرزادی
نرفت
##گلوبین
مزدا
##tern
وستفال
باکتریایی
دیلمان
گورکانی
hd
mit
جگ
زاپ
غزنی
##۷۸
##18
##مداری
کوکا
بلع
مصمم
لیسه
داستانهایی
خلوت
بردهداری
روایتهای
مضاع
انباشته
دیوارههای
برادری
##گوریو
میکوشد
فینیکس
خسروی
المللی
منبعی
بپیوندد
##ازمان
تروی
رویایی
جوین
افتابی
کالینز
تایرا
wwe
هیرمند
میتسوب
خودمختاری
شبانهروزی
وثی
کوارتز
##بوم
##نگا
بدلیل
سنگفر
##enc
تورو
عواقب
تفاوتهایی
دبیری
مغولها
رگهای
ذوالفق
دامی
الاه
کمپر
##اسیک
۲۵۴
خردمند
خواندهاند
ماندهاند
اندیشمندان
رشدی
انعطافپذیر
پهلوانی
متضاد
چرداول
میتسوبیشی
az
گت
##يیدی
همپ
محوط
بینندگان
##پیکر
میکردم
##خواب
توانمندی
۲۶۴
باستانشناسان
فراغت
پورتوریکو
مراجعت
التهابی
نفیس
هوافضا
عبیدالله
time
خرب
##۶۴
##ابو
ابوح
انگونه
کوست
عملکردهای
اتشین
چیزها
فیلمسازان
long
over
واندر
##صره
##روين
مناصب
##وشا
پیران
##وکین
بنیامین
رقمی
کلاوس
سایتها
نمیرود
دوزخ
لامپهای
کرایسلر
پدافند
کربوهیدرات
one
win
بمیر
فولی
قیس
##sl
امویان
بیگی
پاین
خواج
##اتیکی
عبدالق
امکاناتی
کورپور
ماسوله
سگها
۱۸۵۷
app
باهوش
camp
رکس
رپر
هکر
##گای
##جری
##ius
خطری
قسمتها
سیاهرگ
والا
هنرمندی
مقرون
بدانند
سپردند
پدربزرگش
وریدی
دوبلین
فندق
اطرافیان
ژاندارمری
غسل
چستر
##ایدی
نیامد
مدیا
##وردگی
##inal
فلوت
##ولوگ
قدیمیتر
سوختهای
لیتری
فرکانسی
تفکرات
واگنر
حشمت
مبادلات
pat
عجای
نمان
گاری
##نژاد
##ازار
دیدهاست
ویستا
اولا
اولش
اندرس
##داوی
تعاملی
##ويیل
اسکله
مفع
متنباز
فریزر
ارژانتینی
۱۸۵۹
رشوه
زانکت
زیاناور
گمنام
wil
wind
##دقیقه
##اتیت
ایچ
سروان
قرضه
##کووو
روشنگری
پدران
میگل
۲۴۱
سختتر
##ows
سرودههای
##فروشد
سوزنی
۱۸۵۶
هرکس
##لاویو
نویسه
تعاملات
اشیانه
##مردی
بهادر
متافی
تمر
تملک
شیار
شیبانی
##اولی
##ولیتی
##رانهای
قرنهای
باباج
island
خوارج
ساکت
تفنگداران
افزودنی
هوکایدو
قاشق
جامايیکا
سست
عت
درص
##وندها
##یدس
الاینده
مهری
تمبر
حمایتی
۱۵خانوار
شعاعی
۲۴۴
مهراباد
بابکان
کتک
تروت
##خدایی
بلیط
تبريه
اسکریپت
نیوکاسل
شتافت
قلا
##روم
##دیر
##yr
##ایاما
##زارها
هرت
هراز
اجاق
بارو
قطری
##ويیدی
۲۴۳
۲۳۳
حواشی
##oss
##محله
مامورین
عقلانی
نگارخانه
واریانس
دیتالیا
ah
رسته
بهشهر
##سیکل
دیوانی
متروپ
##orf
تعالی
تعارض
کامین
مالکان
افغانها
اپلیک
کشتهشدگان
درخواستهای
سلیقه
کاستل
زخمیان
برگزیدند
عبدالملک
کثیف
مجمعالجزایر
خداد
##تراش
گرادیان
کنک
##ترینگ
##انگا
جیپی
پیمایش
بیمارستانهای
شایعات
گذاشتهاند
اشعارش
گرینلند
##محمدی
مزدک
دوقطبی
گومز
ثلث
شویم
لکی
هشتر
یدالله
##شات
##ling
منکر
موعود
سرخه
##اکاری
بخشد
کمری
##لوبی
گروپ
گلاس
رقبای
نویسندهای
بیتوجهی
اقیانوسها
چراغهای
فضانوردان
##مکعب
صدیق
فرانچسکو
villa
لینگ
لمب
سپاس
چیپ
تداعی
chn
لینچ
##نشینان
العاده
پابلو
بازدیدکنندگان
گفتگوهای
asp
سرمربیگری
اگاهانه
املش
ناصرالدینشاه
منفجره
میکرونزی
bus
رزن
شي
شازند
غور
قضای
##گیاش
##لیش
الرضا
متان
اراسته
اتکا
ترکستان
اورو
##رانند
اسیبپذیر
۴۱۰
اعلامی
زهک
هفدهمین
بامو
سوران
ضو
پتی
یات
مقن
پرون
##نامهها
##مانیا
نیریز
##هنگی
نورون
رایانهها
سرعتهای
رقصهای
اوازهای
خوارزمشاه
فح
ناط
نمانده
یاسر
##کیت
##جید
##اسای
اقامه
حسادت
اورست
اوربیت
یوکوه
۲۴۹
امپراتریس
بیتالم
گشتهاست
مارتا
act
##کریپت
##ogr
##ومرث
ابریشمی
زاید
پي
یس
استاف
##استان
نیافته
دیاز
##ونیکا
##ora
##شرق
لبههای
گذشتن
فسف
ناکار
والدینش
خندق
طلسم
خدی
زیدی
ــ
##ware
##خونی
توي
نیستم
##وندو
۱۸۱۲
شیفت
سوربن
مبارکه
۳۱۶۶
ایزابل
جعفراباد
نعمان
اتومبیلرانی
گهواره
طولانیتر
معایب
مافوق
ثلاث
لیسبون
کورپوریشن
لویس
لوران
گوز
##شود
منابعی
کلاد
اقاخان
##ited
حرکتهای
نگهبانی
مریدان
انگیزههای
چمران
انداختند
فلويور
میپوشاند
شاپرک
316
cur
کثر
متجا
ابله
انجل
کلارا
فوتون
کوپا
پاراد
خواهرزاده
تریل
دوستداران
ايمه
اعترافات
ژنراتور
منسجم
ye
بج
غفاری
##۵۹
##اریوم
دهانی
سازش
لوگان
حسابهای
توپولف
میگذاشت
شبهنظ
تجربههای
بیتالمقدس
جثه
چام
##کیا
##۶۳
فرابن
الشع
##يیدها
##اوای
شبکیه
امارهای
اوراسیا
کوچولو
نیروهایش
##heim
خیراباد
یونیون
تاثیرگذارترین
شوالیههای
هایتس
وکلای
مونتهنگرو
mult
عاری
عکا
هضم
وهم
##33
##po
##yle
##اسکی
ترانز
پیشی
خواف
سولی
##رمارک
تجارتی
تخفیف
chr
پوششهای
پدیداورد
بازداشتگاه
##bert
کانیشناسی
اجتماعات
پلانک
دلاور
حسابرسی
ut
جال
طاه
##۵۴
##شنی
بهوقت
##شتهای
ایاف
هرسین
میرزای
رسالهای
مافی
۲۵۹
بیمارانی
سارگ
نمیدانند
fre
hol
شاسی
##جیا
##den
##المه
اینباره
بیف
نقلی
متحدان
جایز
تمامیت
لهجههای
۲۳۴
اشتوت
کشتهشدن
گیلمور
فریمان
عروسکی
سنجر
arr
مهمانان
دیکتاتور
باینری
فاریاب
publ
sol
نینا
##مارد
##روج
اسعد
محسنی
بیوشیمی
پسانداز
کنه
بینش
ریف
گوگوریو
۲۵۲
کالری
جوانتر
خدمتکار
خصوصیت
چگال
فراخوانده
لاشه
rad
sar
بگری
##ja
##امال
ایوی
جملهای
مسالمت
اراب
##نیای
مريی
پیستون
##ins
طراحیهای
بازارچه
بستگان
هارپر
##igan
الگوریتمها
میخواهم
کنسولهای
نگارگری
کمیتههای
اکتشافات
نامزدها
بهتدریج
لگاریتم
مگن
منبر
##ستروم
بعید
شوشتری
درختهای
بورلی
خلفی
دعای
اژاکس
##قلیخان
بیسبال
پرجمعیتترین
میزیستند
رنگارنگ
cs
york
هاری
##۶۸
اینچی
##کنیک
قرارند
میبود
کلینیک
روزن
تبتی
سومری
صادراتی
۳۹۰
رامبل
رستگاری
شلوغ
عجایب
ham
rock
ژولیت
##خن
فرزاد
##ناف
زندانهای
ساعتهای
خوشی
پراو
state
##میلادی
خزنده
ماژول
میپرسد
mal
جوب
گجر
##ليان
فرون
فرمانی
میکل
افسون
##ونتری
دستورات
ابوظ
قارچها
الزامات
فرابنفش
جیا
استوک
اشلی
اکدی
پسرانش
خلف
تحلیلهای
میافتند
پروژهای
استعدادهای
صفحههای
دزدیده
امبروز
یوکوهاما
bay
تود
۵۲۰
##bor
سرفه
دادرسی
هوف
سلسیوس
تفسیری
خلیلی
جرگه
دشتستان
ماتس
تقویتکننده
کلاهک
بلاغ
بیسابقه
##میلیون
تغ
##fs
##ua
##غهای
##ستال
بااین
##ماندی
نیابت
بازیباز
ادوین
##زرسانی
##داسیون
##کتوری
##کسوس
مانیتور
##تمندان
گلبرگ
ملان
یوح
۱۴خانوار
کاوی
باغملک
پیشرانه
ارزشمندی
بافتها
نقاطی
کهنسال
رویکردی
برامدگی
مارکسیست
استنتاج
ابوظبی
جنا
##دندان
##xt
##امای
##نگه
محوریت
معطر
سیاتل
دادستانی
##گرداند
##التون
##کارتی
تخیل
۲۱خانوار
بلوکهای
واژگون
برادوی
کرنل
پهناور
اگن
بفه
##۶۹
اینستا
رايول
همینگ
##کیس
##نافع
##ویسم
##eral
پیرمرد
اسیدها
صحابه
عبدالبها
۲۸۸
##اویماق
عاملهای
ملتها
ریسمان
حبوبات
شوگونسالاری
باتیستا
عکسی
##یابد
##ذرات
##لیتی
##یمت
##کنه
کرول
##وهری
بنظر
##کوي
سینوس
##اسیان
موتورها
##پلین
مرزها
دبیرستانی
خالقی
انترتینمنت
مشگینشهر
بلیک
خاچ
رفیق
شالی
##زاسیون
##ایب
هروی
جنوا
##ستیزی
لوون
نابین
اتاقک
قلمروهای
القایی
کارتونی
متروکه
جزیرههای
وستفالن
خمیده
##بوس
توافقی
البال
موها
کرمی
##موف
کیست
مالکی
اخرال
نهادها
سیتروين
پختون
مستقیمی
بطلمیوس
لنکستر
86
ووی
پسی
##بلو
##ll
##اسین
##اسبی
اوایی
##اشتن
##نوک
فروسرخ
هیچکاک
رقاص
صحنهای
196
گنجی
تخلف
##form
اچامسیاس
کثرت
بنین
هایل
##نسی
##دس
میرب
استپ
دیور
کلاب
پلوت
دانکن
مشهدی
نتوانسته
دکترین
بلیز
غیاب
هاپکینز
فشنگ
بهدنیا
یوسفی
انجماد
چکاوک
بسوی
فابی
##45
##ضویت
بهگونهای
اثرب
پرتر
مثانه
##lat
##isc
تیگران
##سازان
چاراویماق
نابجایی
کاسترو
قارچهای
techn
میچرخد
خویشاوندان
پابرجا
بالدوین
صخرههای
ce
ظرافت
برومند
همگام
کارشان
کارافرینی
پرهای
ورزید
لیستی
کانر
مکک
همهچیز
امرار
ستارهشناس
هیلاری
تدارکات
بیندازد
ماتریکس
پرخاش
گیبسون
مفقود
بمل
ژیل
##امر
##روض
توک
الشی
##یشا
##اندرو
دیالوگ
بوسه
افراط
لاتینی
##ames
پروژهها
کلاسها
قیمتهای
میناموتو
۱۲۹۰
ايتلافی
زیرمجموعههای
ترمودینامیک
miss
np
سایش
نکش
يك
##۶۲
##بدالله
##wa
میچ
بازدارنده
سوک
شاهدان
محمدمهدی
دریانوردی
یادمان
زمینهها
##بورو
الکترولیت
۲۶۳
مهرگان
##tral
کلاسی
##کینسون
زدهاند
زمستانهای
فایلها
وایلد
صابر
غنای
ملو
هومر
وارت
پپت
گوران
##سکه
##فوی
##حله
##گاهرتز
نامر
سفیدپوست
اتحادیههای
کودکانی
مظفری
##ello
part
زیرمجموعهای
کاشیکاری
سکوهای
گرایانه
غلیظ
ندارم
wr
بلیت
زاهد
یول
##اوت
##۵۸
##الشع
استیک
##اموس
##اقا
کارلس
میلتون
نشاط
ارتکاب
ورقه
##ero
##فاوی
نشانگان
بازارها
۲۳۱
جلوتر
خلقت
تحلیلگر
کابوس
جادوگری
روشنفکری
ستیز
اشتوتگارت
دلاو
##استار
##فراگ
سیلیس
##وشه
کانگ
پلین
سلطانیه
جادهها
ضربهای
مدرکی
ناخن
۶۱۰
تيوریهای
نیترات
mark
لزنر
press
ليوپولد
ربط
طوس
لاب
هوت
چرو
یگانهای
##دهید
ارثی
##اطبی
##گوچی
۱۶خانوار
هایپر
خرابه
بیران
بلندپایه
مقاومتی
گریخته
دايما
بوتان
هیروشیما
شمسالدین
پلتفر
##وپلاسم
تشریفاتی
rom
وش
چیا
کیومرث
نمایشنامهای
۲۶۷
پشتوانه
کتبی
شجره
گریختند
متخلص
المپیاد
نامحسوس
عبدالبهاء
زوده
هدی
یوهانس
##بوک
##nal
##str
##zy
ابرک
پیشوای
فارنهایت
مکعبی
نبات
رادیوی
تومانی
مشروب
مشروع
۱۸۵۸
group
پروردگار
وثیقه
3166
day
سنه
شید
گودر
##ازاده
ایار
یواسان
##انسکی
مبد
مسيلهای
پوستان
شاغل
استراتژیهای
فخرالدین
یواساناس
بشیر
فاو
نگرد
##fl
اوستی
ادوات
رویکردهای
احمر
بهعضویت
۳۰۵
غربال
۲۳خانوار
بانکدار
کریستن
دندانها
بروکس
تذکره
زوایای
dav
پوری
ژيو
##ih
دردهای
##الحه
همپوش
توب
ایشت
##اهیان
خطه
سنگنب
تیان
نمیخواست
برجام
جیکوب
ارمنیهای
نابینا
##وحش
۵۳۰
استانداردها
صندوقهای
کوانتوم
خلاقانه
کمابیش
ضوابط
بشناس
رضی
ندیده
##اگاهی
اناست
ایگور
ارابه
مدول
متروک
لیام
تبلت
##inc
اذوقه
مسلمین
دامپزشکی
##eth
حرمت
##دوکس
جویبار
لیمو
چغندر
چوپان
b1
سدان
فنر
لیما
هه
پوي
##ثانی
##ستاین
##راجی
##یاک
لیکس
برندهای
مثلثی
دینامو
عالیه
بیمارستانها
قضاییه
ممنوعه
اویلر
میانجیگری
open
پافشاری
ببند
فست
مودی
##سنه
##iro
بریک
##یتال
توانی
ابها
مقعد
حمص
اغازگر
شیرهای
۲۵۱
توربو
نیمکت
##جمعی
پلیت
۴۰۵
ang
قابوس
۱۳۰۱
بیله
ناوچه
کنیسه
ریاضیدانان
موبدان
دهلیز
الکترومغناطیس
متهمان
مزایده
بکت
صحی
غازان
پینگ
##ws
همبازی
پیغم
سازها
اورنج
##گوو
جواز
##iam
ماهیچهای
شهرکهای
2019
##کلیف
گرانیت
اویخته
گویندگی
سونات
پنجرهها
ابوطالب
55
سارک
##ذین
ازت
باواری
متاهل
ارمانی
علام
کلانتری
تورهای
##وزیک
اپاچی
جاوه
##کشانی
نفوذی
صباح
عقیلی
مصدوم
فوتبالی
class
مرتضوی
tor
رله
صدمات
##تال
همتا
##ومنین
##وتومی
دورتم
عمه
تلگرام
غیرمت
سمتهای
##گانیسم
قايمشهر
اسکندری
مارکسیستی
خلوص
عبدالقادر
بویی
لادن
##gy
بهسوی
##رکی
تراست
کلینی
##era
بازیکنانی
تهدی
جاوی
درامر
راستین
اکسل
ابادیهای
سوپرمن
دیافراگ
گیمز
سجاد
زندگیش
رژه
##گزی
##انکا
استو
ابون
##کاپ
کمودور
انگار
بازخورد
شنای
پروف
رودولف
مولداوی
۱۸۰۶
میدیدند
هیمالیا
خوشبختی
ضعیفی
شیدا
عج
کک
##مونت
##پید
##چینو
##فصل
اوژن
اصف
میلانی
تاریخنگاری
بلبل
خواندهاست
پارسا
##لاقی
غذاها
##ادوکس
عکسالعمل
ايرو
عامر
بزودی
داغستان
پیروانش
مسوول
فرخزاد
هايیتی
نوزدهمین
ibm
قرمزی
38
cu
mil
شکننده
هژ
گویان
گرایان
پیشامد
افعال
ورژن
اوره
سنگوکو
مبنا
۳۰۱
مثالهای
والنسیا
سیرک
گماشته
میهنی
لامرد
بلندیهای
موروثی
هیدهیوشی
کمپرسور
پختونخوا
تلاویو
قوسی
درامی
ابرد
##اکسن
پرود
کلرو
بالار
##مراد
پسرانه
تفاسیر
جامعهشناس
مفرد
نقاشیها
سويز
سایبری
زبانشن
اودین
44
70
pm
tv
حاصله
طوال
واله
۷۲۰
##نامی
امون
سالروز
اوي
سرط
مترمکعب
اغاج
محمدشاه
نمایشگاهی
چاپلین
بلندای
کاریز
ابزارهایی
سروتون
اییننامه
دیپلماسی
درخشندگی
##بروک
ورقهای
ژیزمان
میساختند
گلپایگانی
language
مضاعف
پوک
##میمی
##شل
میسون
##اخو
گردی
نخورده
خارش
اسپری
رهگیری
##سالو
لیگا
تدفین
۳۲۳
اذرخش
۷۴۷
تمسخر
طریقه
نامريی
hel
بزم
شوپ
##gn
##ایاتی
##ینسون
امفی
متفر
##فتهاند
خیزش
حلهای
۳۱۳
##المپیک
جوراب
##العابدین
پاتری
اکوستیک
فرهادی
قفقازی
پیترو
فرکانسهای
اعمالی
اکرم
رکابزن
میثاق
نایبالسلطنه
cer
national
بگذاری
سسک
وط
اسا
تلخی
واسیلی
فیصل
بیشمار
هندوراس
فقهای
محموله
کاربردها
گذرنامه
بحثبرانگیز
اصولگرایان
۵۴۰
معلمی
##وستانه
گلیکو
رستاق
ناامیدی
پورشه
fir
تارک
خا
چاره
##انیست
##روبی
روتور
##واژه
ورلد
مکالمه
جریانات
چیبا
دنیاست
باریکه
۱۸۴۹
جنینی
عبدالرحیم
ربیعالاول
mem
بپوش
خاز
قق
وزش
##توز
##وایان
##پاره
##شاسپ
##اهیمی
##اردن
##گردها
##گرسیو
اباده
هیوز
فرودگاهی
مینوی
نگارههای
ولگا
رنگرزی
افزایشی
خواستگاری
بستند
اسیبپذیری
رکورددار
##کیلومتری
##ange
ادلاید
مقننه
king
ram
بشق
خوسف
##لایی
##ضایی
##سیلهای
کارتاژ
معرب
سیان
ابخ
اهتمام
##کلان
بنبست
تعمید
##ورشناسی
مکری
سیاح
۲۷۶
جداول
ویتنی
بشرد
شارپ
۶۴۰
پايول
جغرافیدان
کیارستمی
بوری
##فرمای
##اندار
بیایند
##کووا
پارادوکس
چاپخانه
##ike
خالدار
محصولی
سیلیکات
درایو
لاهور
میبندد
هوشیاری
اتشنشانی
بصورت
جول
##دارد
##بوی
##زدن
##35
##22
##sch
محول
##یشهر
کرمهای
مرسی
مقبر
چندملی
تعرض
توانبخشی
فیس
##المنافع
کفایت
بمبهای
باقیماندهاست
ادواردز
انبوهی
لفظی
پرنسس
کلکسیون
بیرمنگام
هپاتیت
دورتموند
چندملیتی
jour
جگر
##سکن
##بزرگ
##نگو
کتابداری
ارتدوکس
##دادن
افغانستانی
رومانیایی
جداگانهای
کنگاور
##خواهید
محبوس
انتظارات
سوزوکی
۶۸۰
محدودیتها
تکاهنگهای
ولفگانگ
دث
کدر
کوارت
##ثیه
##انک
##ومار
الترن
گرت
گراب
بیگل
دلیر
شعارهای
۳۰۲
سیاستها
##زمینی
##يوکا
قراردارد
تالکین
نظریهای
اگوستین
لولهای
کوارک
عزتالله
اینستاگرام
تسکین
فنا
گاند
توبا
التی
الما
##کاظم
##منظ
تیمهایی
اغازی
اهنگری
مشترکالمنافع
هارم
پوچ
ناپی
قناری
عالیترین
شالوده
خنجر
لايوس
خاين
زبال
طه
وتر
اوق
شهرزاد
اسبی
نیکارا
۱۸۱۴
##ony
طیفس
تابشی
خبره
دفترچه
دنیایی
فواید
پرافتخارترین
نیکاراگويه
tar
خاویر
ماق
##عدی
##قدرت
##ومای
جهتی
مرداب
تبریک
هدفش
بلندمدت
حجره
گمراه
میکروسکوپی
قومیت
برنزی
اسمانخراش
انسجام
دربرمی
انهالت
صدیقی
یواسسی
ماوراءالنهر
ct
was
مرید
ندا
اوتر
الود
موزام
محاور
##اندرا
گذاران
پارالمپیک
هدفی
مالیه
۲۸۶
مفیدی
اشکالات
کارخانهها
هیدرولیکی
##کاسو
باخبر
نانوذرات
سوییس
نینوا
زمامداری
black
37
دویل
شفیعی
##یی
روبین
دیام
توسل
اندرز
##لبن
هایک
توسعهدهندگان
۲۷۴
پشتون
تصویرسازی
ناتالی
هیدروکسید
یزدانی
استخوانها
گرافهای
دگرباش
زینالعابدین
اتوبان
michigan
زکریا
دوردست
فیثاغ
est
دفتری
ضمیر
منجمله
ایبری
##یاسی
ریزه
کلیت
کردنشین
ارتفاعی
پاوه
اسبهای
بوتس
ارجمند
دیش
ضربی
فامی
یب
##زیت
##ولر
منچ
فروری
کارمن
نوازی
##orm
نهی
##کنندهای
نمیگذ
تياتری
تلاشهایی
##urus
##اتوره
تنگات
کاشمر
کنسرسیوم
گوته
تفرج
زیربنای
دومینیکن
hist
sil
دودی
##داش
##ابیم
روه
اندود
ورزی
کلیولند
##سلمین
عبدالرضا
##قرانی
گیاهانی
حمایتهای
کتان
ونوس
##iev
شاگردانش
الومینیومی
منازعه
کاکاوند
انضباط
الاهلی
هیرو
##جک
##انچه
امنای
پیامد
بنف
مترجمان
جهانگیری
هندوانه
گونز
سیمهای
۲۷۳
حملهای
ورودیهای
پیامرسان
alb
۴۷۰
##ations
کنسرتو
زبانه
زودرس
دکستر
بعدازظهر
bal
tal
ثریا
لابی
هس
۹۵۰
##راین
##يز
##پیل
##ینکی
میجی
میتس
##ریخت
منن
دانشی
بالها
سنس
قدرتمندی
نویسندگانی
۲۶۸
الگویی
کیهانشناسی
جلسهای
فزایندهای
اشنویه
طوالش
کامبر
##يونگ
بازنده
##موک
فعالی
تمایلی
مستطیلی
مینویسند
صدارت
##وکلا
۳۰۸
مالاریا
۲۷۲
##uss
برمیاید
۶۳۰
شفیلد
القای
۱۸۵۵
تروریستها
مراقب
فدایی
رسانایی
##کوتاه
ماکسول
valley
اسباببازی
خفه
نعم
##دینگ
##شکی
##امیر
اوون
ای۳
ایینه
پروم
افبیای
##کرت
##دهایم
یوسی
##الدینی
شیردهی
ارتشهای
باندی
ناظم
والری
##osh
مسوولیت
فمینیسم
سکانس
aerop
پارینهسنگی
بزه
لکههای
وسو
پیکس
جنگجو
تمجید
اغراق
لوکی
##چیو
۲۲خانوار
کدو
چرچیل
اسپانیاییها
سایرین
ark
مشارکتی
میکروار
2006
محدودیتهایی
شادگان
مواقعی
نفیسی
ققنوس
خیا
خامه
نپ
##پارت
##je
##هاور
اماد
نیشکر
بیور
مغناطیس
جغد
سیلو
##umb
کرومیت
استادیار
توطي
مسیریابی
سرنشینان
اتابکان
ژولیوس
دایناسور
ازدیاد
map
هگل
وینگ
کوند
میم
بافق
امنی
ایرانیتبار
سهند
##ابران
سوزی
۳۰۷
جیب
۲۸۴
امیرحسین
کالیبر
ماسال
سنجاق
شریفی
ولسوالیهای
کمانچه
رشیدی
گوگنهایم
love
بونی
بشن
شیا
ماسی
گپ
##غامی
##حا
##ندیل
میست
برید
##اتوم
امپرسی
شدهترین
المو
نقده
ساختههای
##يیز
سهیم
خطهای
##گریز
ویرانههای
جاهایی
سابقش
وابست
اسبها
ناتالیا
##غلات
خانمها
غرامت
کاردینال
ماهوارههای
تاتنهام
اسیران
نصیرالدین
کمپلکس
تیتر
وکی
چانه
##zo
براندازی
مویر
قرارگرفت
کنایه
انجلو
##اخی
بزرگسالی
##ery
ستونی
فردریش
نورنبرگ
دیواندره
پنجاهمین
هلیوم
نوترون
پلتفرمهای
tcp
بکن
عزم
کسل
امونیا
##روو
ایثار
نويل
پران
ریوند
##جیسی
سنن
هفتهای
##تقارن
ماندگاری
مارکت
بیاعت
زخمهای
تهدیدی
درسهای
سلوک
زوجهای
گویای
اهرم
غیرمنتظره
فراماسون
نامتناهی
ben
دلق
غشا
##نکو
##زویل
استند
اینگ
فراطبی
##تیف
متز
سرگرد
دوسال
نمو
پیشکش
تنتن
بلگراد
گلدار
۱۷خانوار
دانوب
چرمی
پولک
نابغه
اختراعات
max
واپاشی
تزیینی
پربین
بیسمارک
خدیجه
غزلی
مله
##نیت
##حالی
الزای
موشهای
میرسیم
حداد
##هنگام
اسیبی
البل
۲۶۹
##انوو
سربیشه
فضیلت
۲۹۵
رواندا
عبارتنداز
##فعل
##ira
لاغر
نیترو
amb
قایقهای
خرابههای
توربینهای
##واسطه
نغمه
پولیتزر
سنگفرش
شفیع
صابون
گالات
یود
استونه
سرورهای
##ونیستی
سوگواری
شوراب
اروین
نوراباد
##ویتز
گیومری
عبدالعلی
##کنشین
۳۲۸
سرودهای
کاخهای
لیتیم
شامگاه
بگوییم
کوهستانهای
اسنودن
ضایعه
غزنویان
ایپیای
مونتگومری
ژوراسیک
فاستر
پشه
چت
##fe
##ml
##اسکریپت
اواره
اوزون
العد
ایرانشناسی
کشاند
کلمهای
تشکیلدهنده
پادتن
هدفمند
inst
شناسنامه
ابوالفتح
جریکو
قورباغ
زودهنگام
موزامبیک
رعیت
طاهره
فنوج
ندید
##ستار
##الوس
استیت
امامیه
کشک
##اخور
نشنال
##رفورد
کلون
کوستا
گذرا
دارندگان
کاتد
روانسر
وارونه
سنجابی
سوزانده
لولهکشی
۷۳۷
نصرتاباد
قایقران
center
الزایمر
عدن
غوطه
ملاک
##ան
سالاری
مهلت
##لسر
کیبورد
اردل
پالم
رادیواکتیو
شدهبودند
یعقوبی
اتلتیک
هجدهمین
قامت
##nd
##uv
میابد
##لیوم
همپیم
فرهی
ایاس
مره
##وشین
اتشی
ارتمیس
##ومیک
##وستد
مالکوم
۲۷۷
##eck
عکسبرداری
هیدرولیک
محرکه
راندمان
پویایی
اقامحمد
##منظوره
nat
زک
طارم
##77
همایند
دیاس
اتان
اخباری
سامرا
inc
۱۸۵۳
هوانگ
نمیداد
uses
مینشیند
48
sim
بویل
ساسان
صعودی
هونگ
یولی
میپ
اساماس
##مینه
کتابخانهای
##ini
فرهنگسرای
دانان
بردسکن
تفصیل
پنوم
مدالها
##ura
ماشینالات
تریلیون
سیلویا
تنظیمکننده
۱۸۴۷
##iano
عزیزی
ویرایشگر
فانتوم
باتلاق
popes
انستیتوی
43
رعد
پالی
کایل
کثیر
##صدا
##المع
کهیر
برافر
دوستم
سیطره
بیکار
##وسنتز
##وبند
##درجه
تنور
##واگن
۱۸۲۰
سوغ
چهارگوش
##اواتی
دریافتند
استادش
##tra
بشوند
شایانی
اسفالته
##ava
حادثهای
flights
بیزانسی
کپنهاگ
پربیننده
aa
زیت
ظل
عاشی
پالت
پتری
دیون
تحصن
تنبور
کوال
نخاع
شهبازی
شدنش
ستد
دانایی
تورینگن
فقها
۳۰۴
برجها
کرمانجی
بررسیها
یهودا
دینامیکی
2000
سورانی
۳۱۴
رزمند
تراشیده
امتیوی
الحسن
##uct
mart
عطف
##پردازیم
##اسلامی
وخیم
region
تمساح
ایاواس
ضمانت
##gen
پیکاسو
کليوپ
کویری
بلد
۱۲۵۰
مخمل
۲۴خانوار
جشنها
دستورها
خوشنویس
فولک
۳۳۳
۵۱۰
اربیل
پذیرفتهاست
تحریمها
پنداشته
illin
بیرانوند
bor
۷۰۰۰
برنو
منگ
السی
بوق
##يیست
بارن
هیث
یوکاری
هندر
رنگینک
یونجه
چیس
هدفهای
واحدها
۲۸۱
۳۱۲
۳۳۵
رفتارها
اژدر
کنندههای
فالز
قالیباف
حاملگی
مینیاتور
صیاد
قایقرانی
دولتمردان
مجذوب
ناطق
ok
تاسف
خویی
گاور
ملیگرایی
لیان
##las
البات
اندرسن
تابستانهای
جانشینان
اکسیداسیون
سلوکی
۱۸۵۱
۱۸۰۴
موشها
اگوستوس
ريالیسم
نامشروع
دیسکهای
پوتین
انریکه
لالیگا
illinois
ظفر
ملام
##پنج
##زرد
##غا
##اریها
دهنه
دستکش
##جهان
سازهها
نمیکن
۲۷۹
مختصری
ایدهها
##ولتز
قلههای
خویشتن
نوردراین
ندادند
رینولد
ريیسی
پیشتاز
دیافراگم
eb
بوان
یالهای
۸۰۰۰
##وشت
##ns
دراک
اینور
نامههایی
##نیو
تاریخنگاران
هفتگانه
##انواده
فرانسویان
حملون
comm
۱۸۵۴
بهدستاورد
گراش
وحشتناک
برشمرد
سرگیجه
عرصههای
8c
شاب
طارق
عابد
لخت
نپتون
ورو
باست
##ریقی
##هاج
امپر
نماي
##کرون
بداهه
ورسای
قطرات
اورارتو
کلیپ
۲۵خانوار
سردسیر
ارماویر
نبوی
نتهای
##میرزا
پراگرسیو
شارون
استودیوهای
سلوکیان
میشناسد
دلاویر
تیا
شاي
پاگ
##طاط
فراس
معجز
اسپکتر
پدرم
##سنس
سردی
نمیتوانستند
باورها
زاغه
گویشور
زیباییشناسی
۵۶۰
رباتیک
بیهقی
##جنوبی
ایديولوژیک
ایزوتوپهای
cpu
##فلیکس
هشترود
85
شیاط
##نهایی
ازاین
کهکشانی
##رکاران
التون
دیوی
کنارک
##بانگ
موردنظر
کندن
ورای
مستغلات
##ایرانی
##انسانی
چشمهها
انتشاراتی
شوقی
۳۱۵
نتفلیکس
تالشی
##oma
بندپی
مینامیم
##زوفر
پرتغالیها
سويیفت
منحصرا
land
mad
sun
van
##حساب
باگ
ایب
کلاله
کوکو
زمانها
##ias
##اسبورگ
کرمانشاهی
سردرگ
ابیات
طرحریزی
##amm
جرالد
۳۷۵
واژگانی
گرانبها
##ارمونیک
فرقههای
cit
ساعد
لکن
بها
بهگ
##استرین
کارکردهای
نووا
دهقانی
اجناس
گلوت
سیناپ
۳۰۶
تسلیت
اراگون
بهرامی
اسفندماه
جاسازی
اویغ
فیلترهای
گناهان
نايب
پلیمرهای
green
mm
کپلر
##چهارم
##پیون
##نوال
بریتنی
پارانژ
##دریک
دخانی
گونههایی
سکون
حسنعلی
حدیثی
زرشک
۱۲۸۵
بمپور
هشام
بالاخانواده
mir
##دلی
##جیما
##ko
همگرا
الاستی
اسنی
بیای
دانشور
رویاهای
کلبه
ریچی
مصباح
خارق
۲۶۱
ایمپل
هندیها
خوابگاه
کامپیوترها
بندیکت
مصداق
مونیکا
نگرفتهاست
دستاند
مکاتبات
فوکويوکا
مدیترانهای
استونهنج
الباتروس
حملونقل
aug
حراج
سدی
هپ
کپور
##انیل
اولیو
##کنر
##وسون
اتیل
پرستی
بنتون
۱۸خانوار
اثرگذار
##ایران
غیرخطی
موفقیتی
عضد
سیرا
۳۳۸
سرمایش
۵۷۰
گشاد
سجادی
redirect
خاقان
بلشویکها
فامیلی
فراطبیعی
رور
رمی
کورک
کثیری
بهرو
دیزلی
سیاهی
##ندههای
##مینستر
جمعیتهای
جنتی
شرحی
##پیان
لوگو
شیرجه
حکومتش
سیمپسون
۲۷۸
بسنده
۴۹۰
کامیاران
مجهول
پودلاس
سولفید
لطفعلی
اقلیدسی
نوکليوت
جگوار
##ograph
سروتونین
جاپ
خیمه
سیمی
##وچی
##ience
##فست
##78
##ورپ
سرامی
دیانا
##وریها
بازنمایی
حسگرهای
هیول
##اوو
مارینا
کیسی
صداها
صداقت
سرزمینها
سعاد
بیتلز
فریبیاسدی
ایدین
حمدالله
نماندهاست
همپوشانی
جرات
##29
##ذکر
##ya
##صدر
کهنوج
تايو
##اشتاین
دورن
پیز
زیور
گلخانه
نزولی
دینور
ماجرایی
عنصرهای
2007
متداولترین
السلام
انزیمی
نیدرز
service
view
جراي
غله
لابر
##oo
ابوت
##وهاب
استفن
مصالحه
فارم
سبزه
ابرها
سیلاب
پورتر
حفاظتشده
##فیلم
برشمرده
التحصیلان
حاشیهای
منصفانه
gar
افیس
بعهده
حنا
پچ
##تیل
##بله
بهجز
میاور
##تروپ
۱۹خانوار
ابوری
##اکین
مرفه
##زدگی
پلک
جداره
دوستدار
ماریون
##خواهانه
alt
##انگیزی
امینم
##obook
فایده
نگرانیهای
کجور
برمیدارد
امبرلا
جاویدان
tem
سوند
سونو
كار
لوند
##صم
روا
کارفرما
نامتقارن
ویکس
سیس
نمیم
دانشیار
علایق
سوختی
##خوابی
گواد
داستاننویسی
پهپاد
##olk
ارکیده
monobook
فرناندز
قنبری
میکرومتر
##awa
کبودراه
لبنیات
virgin
امونیاک
useskin
جبار
لگ
##وکل
##بارت
##39
##79
برگر
گرون
بیکن
نواور
پیسی
بازکردن
زیاده
سهیل
بلر
شهیر
فلد
طبیب
دبیران
معدودی
بمبافکن
کرکس
ساوجب
مرتفعترین
مجلل
ger
sum
زول
صلو
##سهایم
##صال
##فرنگی
پیشوا
کلب
لیث
هیجانی
پنجگانه
پارگی
##ella
##لیتسه
بورسیه
گذارده
اسکلتی
دندانه
گزیدند
عیلامی
استایلز
سگا
فایر
لپت
کدی
##عاملی
##bi
##قال
##هایان
روضه
الجی
سیونیک
بیاسدی
##وشد
ترزا
مصون
مشخصا
۳۰۹
۲۹۳
عصمت
سرودهاست
ریچموند
شاخصترین
بیهوش
تاتار
وودز
جولیان
سالوادور
تراموا
لاهه
مندی
درق
ایای
کارو
کرس
##واسی
سپهر
##رمنی
راهبان
##ولیز
هزینهای
پالمیر
متحدین
زدگی
۳۳۶
توضیحی
مارتینز
##ife
مرضیه
غاری
لارا
هادر
گوي
##pm
استاین
رابی
مساله
نمادها
پسا
دارت
##وسر
##درمانی
اجی
۱۸۱۵
هیلی
دیدگاهی
اختلاط
۳۲۲
۶۶۰
بگذرد
کاکتوس
شستشو
دوپینگ
ast
قولی
گین
##ql
##pla
##کنولوژی
ناممکن
کشیدهاست
کنز
عمقی
مطلوبی
یوجین
شمالغربی
جیک
فاصلههای
۲۸۲
رادیولوژی
##دینگی
۳۳۴
صرفنظر
##oth
تجدیدنظر
لمسی
باختند
نکشید
نیدرزاکسن
don
sin
va
هسن
##یابی
میمند
بردی
یکباره
##اریک
سال۱۹
##یلهای
فراش
دوحه
هوارد
ملکان
مدالهای
##ازمایی
۲۹۸
مزدیس
قیامت
استودیوز
۱۸۳۷
بحرانهای
شیاطین
خارک
ساخ
چیده
##ایدر
درحال
##ادزور
##گرانه
ارسنی
##الیس
اشیل
##ورتون
گرداور
##ense
تخمدان
کنترلکننده
##ask
جیغ
روانکاوی
فعالیتهایش
سبزواری
۳۲۹
لایپزی
میرفتهاست
تماسهای
ربطی
کانیهای
فرزانه
حنفی
نردبان
ماقبل
49
tim
وانت
##طا
##یلها
کرگ
بازن
منتظم
##شنه
شهیدی
##فهان
اخطار
اورنگ
عرشه
##خوبی
دلتای
جدیدش
نتیج
پاسگاه
cop
موتورسیکل
۲۷۱
ارزوهای
ضربالم
کوبه
خرابکاری
##ization
die
sam
تراج
خمر
پومر
گوب
##دای
##پلو
##26
برات
اینجاست
سره
مسب
معابر
##وتخت
نقدینگی
همراهانش
صفایی
چونگ
مسابقاتی
عبارتست
عقید
باغوحش
dev
۳۴۲
اریل
star
حجاج
تخمک
فریدمن
ترشحات
لنینگراد
هورمونهای
لیدز
دوپامین
play
چاشنی
ایمپلنت
56
سمع
##رور
##صیر
##76
الاس
##ربا
##کتون
چندمنظوره
مخر
۳۱۷
##ope
معتاد
اتوماسیون
##raft
فزونی
فمینیستی
شاهکارهای
film
super
نگهداشتن
تسنن
عکاسان
لایپزیگ
hu
اکا
سما
##34
##ject
##صریه
##یمر
نامهایی
فیلمش
بیرح
۲۸۷
مهربانی
رومرکز
##اویج
دستهجمعی
۳۱۶
enter
هلنا
فتحالله
تاجوتخت
ریشهای
جابز
##عفونی
سفالگری
فراهان
کیلیکیه
احمدرضا
میکروارگانیسم
کليوپاترا
far
فوي
چچن
##داده
##عق
اسلاوی
بیوک
فیلارمونیک
عنوانهای
##اتیان
دومینیک
خوانسار
ندای
۳۱۸
۳۵۰۰
##نهایم
قیف
متفکران
نخلستان
book
شیلات
##span
الکسیوس
فاشیسم
هموگلوبین
تارت
سمل
قونیه
لف
لنی
##لری
##ورای
برجی
##ونیم
روتر
##یاورند
مشاج
نظمی
اثیر
تاریخهای
مانعی
محمدبن
مخمر
عبدالم
شخصیتهایی
تیرباران
فیلمهایش
ماشینکاری
طلحه
۳۲۱
۵۸۰
تهدیدات
دگرجنس
رسلمانیا
پراوازه
البالو
ابوریحان
شغ
مکار
هویج
##رونی
##لول
##پک
یکجا
##ازین
تحولی
اعلی
تاریخدان
شرلی
##کانت
بیماریهایی
مزایا
۳۳۱
صداگذاری
ادواردو
شرکای
colle
sem
##ym
##اتش
سرخی
##وریسم
میبد
هواک
گلزار
معمایی
پایهریزی
مسلما
موقوف
میدل
۳۲۴
بزرگترش
تزریقی
داراییها
نداشتهاند
اسنادی
یورگن
##ذهب
1395
کلماتی
رونالدو
عیلام
ناسازگار
54
بمع
شامی
##رند
##28
##ینشین
ازاده
میچسب
سرحدی
خودرا
کرزی
دورافتاده
اتس
##داغ
تمث
۱۸۱۳
سبکتر
مارکی
وارداتی
هايی
جیحون
ارزشها
عمیقا
بولونیا
لنفاوی
##ugh
نمیدانست
کلنل
غنیمت
عریض
اخرالزمان
87
ذین
ضیا
هابل
##دوست
##پاشا
السلطان
##فیکا
شمایل
بازپرداخت
##کراس
کوپه
ورمانت
نقشهها
نهبندان
##یندژ
##فلت
هیدروژنی
مقرنس
۵۹۰
مبلمان
this
پمپهای
زايران
مفتخر
ساردويیه
ناسازگاری
دخانیات
90
fun
ko
oct
حت
شرا
##su
##ورید
##ریکس
##ابلس
فرجام
##شمال
احت
لیزا
باغبانی
سورن
معتبری
زاغ
پیمانکار
مقطعی
مایلز
سیبزمینی
رویدادی
یگانگی
پیشنهادهای
مزاحم
فولکسواگن
دهلران
طاهریان
کبودراهنگ
cre
ll
sat
حوا
١٣
##uf
##اتوس
همزیستی
بوعلی
دارکوب
##کرس
استرپتو
ناظری
چرخان
۲۹۲
ساختارها
سموم
شهرتش
۳۶۶
اکسایش
دیرتر
محورهای
پرستاران
پرسشهای
پورتلند
وامهای
سهره
منهدم
الومینیم
ابطال
بمن
چینه
بهخوبی
برافت
##وییه
خودمان
روزنه
زبانهایی
##زبانی
انتقالات
۳۰۳
اکتاو
مثالهایی
فرهنگیان
اصلاحطلبان
پالمر
فتحاباد
ساراگ
شاگردی
api
گویشی
غیرنظامیان
ملاحظات
##sky
غافلگیر
american
تفاضل
اثربخشی
foll
حصول
رامون
لونا
##ري
##حام
##ورزی
همی
فرنگ
##میع
##اکوس
جایزههای
اغا
##بارز
طبل
داخله
۲۸۳
عربهای
۲۷خانوار
اسفنجی
بسپ
اصلاحطلب
فنیل
۳۸۵
الهامبخش
باتریهای
هلسینکی
ساوجبلاغ
top
##واب
##بدان
##ds
##وردها
براش
##ولاری
امیدی
الای
مساع
مسخره
کارگیری
دوبعدی
##وتسی
بیبر
دستنویس
ادمهای
##کوویچ
شاهراه
غیرت
##ato
هیچوقت
صدفی
۲۹۷
تسلا
دعوا
نارگیل
style
صفرا
خمسه
ماهیچهها
ثانوی
سیلیسیم
رزمندگان
ga
تلافی
فج
##نیم
##گاتا
##ye
مدفن
شهوت
مکدان
جوخه
شمالیترین
فرمانفرما
شیروانی
پسرعم
##پلنگ
۲۹۶
پالاس
لباسها
بشارت
دایرکت
ترینیداد
کلاینت
الیاژی
ذوالفقار
75
dh
jo
اونی
افی
جویس
ممی
گسی
##رفی
##رنگی
##ու
بهداری
##ابیت
دورگه
##وارو
##افون
دادم
احد
جنگجوی
هنرنمایی
خیس
نورونهای
ایزابلا
منطقههای
نهادن
بایزید
ساروج
صادرکننده
فوکر
بلاغی
شکوفا
journal
اگری
بغل
رفیعی
سکی
##ساخته
##لسی
##net
##ος
درصورت
میکی
شدگی
##کنها
دیيی
ساختوساز
شنونده
لیوان
رایس
خاصه
نوشتهای
گرمسیر
خبرنگاری
هاربر
۵۱۲
اشکارسازی
کابلهای
اکواریوم
شریفاباد
صحنههایی
الزاما
حاتم
مفسران
لاجوردی
کهریزک
یوحنا
hal
ros
هانگ
گغ
##mo
باوجود
##لیث
ایرن
متغ
یاغی
قراق
جایگشت
##شدگی
زنها
عبدالوهاب
سخنی
۲۶خانوار
اوتار
بستنی
لرز
وینستون
پایتختی
پترو
دویدن
تخممرغ
تروریست
تستهای
اولیور
سهروردی
کمیتهای
راهکارهای
شقایق
arkansas
رشتی
سفی
ساندر
لاد
ژيوم
گینس
##ارده
##اروف
امرا
امینو
کارگروه
قرضی
##لاژ
بوکر
دستمال
برخوردهای
اردوان
خصومت
هواپیمابر
سیاهپوستان
اسفنج
اشتباهی
ناخدا
انتیوخ
فوقالعادهای
اشوریها
هراکلیوس
جیتی
پختن
اموری
کاره
پرایس
دادوستد
کلونی
منتش
##جیف
لیاقت
سناری
ثبتنام
ماکیان
ساعتها
مفاهیمی
##tter
زیستگاههای
##ution
هلالی
تالین
تخمها
حفرههای
فایو
عالیرت
سايورون
لوزان
mt
mp
اویس
غیب
مارد
پط
چلی
۶۲۰
##شنا
براتی
سالمندان
همتای
بارنز
هوازی
اسلوب
سیدمحمد
موقتا
توانستهاست
قطعههای
نیمهنهایی
میکروب
سنگینوزن
۱۸۴۵
انتقامجویان
کرکوک
هایدگر
قايممق
کیمیایی
بشکند
سولو
کوشی
##van
##ایجی
یاک
بوخ
کتابفروشی
##نوتی
کامو
ساچ
مولتی
کورههای
وبگاههای
۳۲۶
۸۰۲
عکسهایی
مخالفتهای
الحق
۱۲۹۸
کنارههای
فشردهسازی
قاسماباد
گمرکی
اپلیکیشن
39
جسور
خاردار
زوم
٢٠
##نورد
##ls
دریم
بهه
باتوجه
برمن
انیل
##یتسو
اوکلند
توتون
موبد
ایوانی
میکايیل
##وزومی
مشبک
هرتس
ترف
زیرگروه
اعج
هنریک
میرجا
کاظ
##وسیا
۳۱خانوار
واکنشها
فولر
فرمانروا
دالاهو
کازان
بیهوده
ایزدبانوی
قنبر
هارمونیک
اونت
جويل
رفر
وگر
##gro
##لیسی
##فتند
##وموری
المت
##وشیا
اتین
اندرا
۱۸۱۰
سیستمهایی
ایرانیکا
اجرهای
استراسبورگ
معروفیت
محمدر
ابتدايی
ضدعفونی
گورو
سرخپوست
حرفی
۱۸۵۲
ربکا
وانمود
عرفات
توانستهاند
پهلوانان
نیکوکار
تسلیح
پاستور
ایبیام
اراگاتس
انفلوانزا
هانوفر
##زوفرنی
ساراگوسا
cf
kom
pan
زرده
غدیر
وگ
گوند
##ep
ایرو
بیخان
مدونا
اتا
بنو
##پیس
شبدر
نورپردازی
موجبات
اچتی
۳۶۳
ثروتمندان
سوارز
طراز
مخاطره
ارسالی
انزوا
میرجاوه
mos
وودی
امشب
##اسون
محتو
##وتسو
##وسین
کمنظ
مردود
اغشته
سلم
نهج
##ester
علاي
پاسداری
هاچ
متناقض
۲۹۴
کلاژن
بیتهای
فریمن
۳۳۷
۳۴۱
جدولهای
گذشتههای
ظرفیتهای
شباهتهای
میشناختند
اسانسور
vis
یانی
##db
##ایوی
##ندز
باسک
بریل
شهرنشینی
##اندازه
ارسی
##برای
کوين
##کسانان
دلبستگی
##ایجان
لوگوی
ابرنو
لبخند
دیدهاند
مفروض
##شاهیان
نیمهشب
درامز
##الممالک
۳۴۵
اوییشن
مارمولک
ابخوست
یزدان
فط
واکس
##استرو
توش
##بیگی
اقسام
بارگاه
مانت
مصونیت
اخلال
علیمحمد
##onom
ماهشهر
سفیدی
فروت
فروزان
ترانههایی
اضلاع
۳۵۶
اشکوب
دعوی
##المومنین
195
کهکشانها
پیغمبر
دانت
##اگر
راکول
##سیدن
بودنش
اوتا
تولیت
سرریز
دوو
سیده
اشارات
اصلاحی
اعظمی
سپیدان
##لسویگ
امدادی
##سینا
##elle
خروش
تریسی
صاحبنظ
پیمانه
۴۲۵
۵۲۵
کامپکت
##reek
تویوتومی
only
##lines
مرجعیت
جاجرم
مرخصی
قافیه
یواسسیجیسی
بهگفته
خراش
##ورات
##یتانی
روژ
موزون
##گرین
گرنت
کرخه
استانبولی
تنزل
شورایی
تعاون
مکدون
جوکر
##itz
جیپ
۳۱۱
سمور
فیزیوتراپی
سنجیده
۴۷۵
۱۸۲۸
شمساباد
وداع
اسرارامیز
ماخذ
##ودینامیک
منافذ
gh
اونگ
پویش
##bach
میلا
برنی
تاشکند
##ناصر
##افرو
##بانیت
دریاهای
بالستیک
هوجو
##ودیو
همانندی
لوای
شکستهای
حسینقلی
##ظهور
هنرپیش
دمش
بستهها
۳۲۷
هارپ
صداوسی
کاستن
ادمکش
##نمود
جادوگران
##کلنبورگ
ساقط
##رکنندگان
دربردارد
دغدغه
مجارستانی
بوتسوانا
جرايم
عالیرتبه
88
dom
li
rh
جشنی
حریق
صاری
##فوذ
##uer
انسی
انیس
سالهاست
اسکس
متصدی
##لاخ
نماهای
مردن
##اتیسم
فرانکن
دانهای
##ital
##وپول
قلعهها
پناهی
ادارهکننده
زیستشناس
وینچستر
شدیدتر
تاراج
وایمار
گالن
produc
that
خاطراتش
رادرفورد
کرسیهای
سونامی
چنگال
منفعت
mount
معترضین
بیگناه
بتوانیم
ناخوشایند
fla
بجنگ
##ژنیک
باسیل
##ویونلو
ایون
##کنز
مسافری
تراس
##گانو
زیارتی
جمهوریهای
دیدارهای
خداست
تپهها
موقعی
کمیسر
سیمپیچ
##هیب
سورین
ماسهای
سروستان
##رزاق
خاموشی
##ster
ناتینگهام
##مجید
نبردها
۱۸۲۱
تخلفات
شناختهشدهترین
ترمودینامیکی
ارتعاش
##میشود
pass
سگی
لاما
هارا
##راس
##iation
##طول
الاش
التم
ارگانهای
بیضه
مدنظر
مشورتی
عمری
سازان
بالابر
ریپ
نمودارهای
وزرا
##atic
سروکار
##المات
تامس
داروهایی
محاسبهشده
نژادپرستی
تایلندی
لورنزو
پاشنه
تیش
دادی
فیا
قادری
پولیس
ژاله
##ناع
میسپ
متین
یاش
##اختن
شهباز
هیوم
##onic
تعز
##کنندهها
نبردناو
عاملان
##ماندو
۱۸۴۲
بویایی
کاشیهای
ساندویچ
comput
متلاشی
64
ka
دیره
ساگ
عدی
گونی
##بخت
الاغ
نیجر
پرقدرت
بدعت
سلتی
ماهید
بناپارت
اپتیکی
هیيتهای
۳۳۲
پیامها
##ago
قادرند
کوبین
۱۸۴۱
موریسون
جبريیل
##ومرن
جاذب
نجفاباد
فرسوده
فریدونشهر
صیفی
جادوی
انهدام
پنگوين
بهمعنی
مومیایی
sr
لخته
وایز
پولو
##بلا
##ذا
استمر
##ویلا
کشفی
ابنیه
##اخام
##اخوردگی
##ازیا
بارور
تمپل
اسپیل
طیبی
##ipp
##amb
اصلاحاتی
شبیهساز
ریاضیاتی
میگذاشتند
۳۴۳
گذشتهاست
ریچاردسون
کمربندی
دربرابر
گاردن
نهنگهای
متخلخل
ونیزی
math
ox
قاط
مگی
وصول
##دهام
برگیرنده
الاله
ایسک
##کلام
افرو
هیي
##ايوس
تجدد
##یدها
نورانی
ابررسان
حملهور
درونمایه
روانپزشک
##ado
پورن
۴۵۱
موثرترین
کوبایی
پترسون
اتومبیلهای
طاقت
تولوز
ترومب
##ouse
ایلخانان
وراثت
صاحبنظران
حصر
زحل
سیره
نزه
##چرا
بهسازی
##ترس
رودها
ایسل
##تیجه
##بیز
نوترین
##کافت
##وبار
خوشم
کووال
نظرش
سلح
المپیا
فرزندانشان
تیراژ
سانچز
رادیک
۴۸۵
۳۹۵
قطبش
۷۸۰
لارو
مقتول
چهاردانگه
چریکهای
عقیدتی
انتیوخوس
mill
ret
##وروس
##ویاما
اسو
دیان
ویگ
دوبی
##نیوس
گراس
گرانده
##کلو
##ارتن
نخبه
##بايی
دلم
پارچهای
code
##سوکه
##ility
۳۵۵
۳۵۲
گریگور
بزرگیهای
۳۸۷
کاستی
الجزایری
گالوانی
راداری
کراچی
ساتراپ
اگو
نگیرد
میایست
موع
موحد
محج
نیکسون
کارب
##احد
##انشی
##وسفر
عمید
##ینیوم
تماسی
دادههایی
تشکیلاتی
سنگنگ
نورعلی
موجوداتی
##همندی
سکایی
۲۸خانوار
ویلیس
وینس
دریاچهها
چهلمین
کلاهبرداری
زرافه
وجدان
استثناء
وشمگیر
تمرینی
رینولدز
نولان
هولد
چول
##نق
##الیت
میانههای
باهام
دارک
تعادلی
سبیل
همهجانبه
پلکانی
نیازها
##مرت
عدلیه
##use
ماکسی
دونفره
راهیابی
۱۸۳۹
پستاندار
اوبونتو
خردهفروشی
پشیمان
تلی
شوشی
لعل
نکوه
##ونیل
بیولوژیک
##وسکا
افکند
##کروم
باروت
##اوردی
علیقلی
علیمردان
##ورشیدی
سریهای
پارما
رایدر
عبداله
سیاهان
۲۹۹
اطرافش
##یناوا
تومورهای
تنگستن
وایس
کیتس
جانورانی
حوضچه
پرشور
غمگین
لقاح
##کاووس
armen
دغدغ
first
لباسی
کویل
همتر
میشناسی
ایرون
##وهد
دومش
شیپ
حموی
مدرسین
##خیزی
حجاری
پرچمهای
گرانادا
ايوسن
ویديوهای
صدرالدین
بگویم
ورماخت
ناظران
باواریا
fer
mov
ss
she
جاو
##36
##ior
##طب
##ایستی
##ینین
##وناس
یکساله
##یتد
توخالی
ایلیا
باربر
ترکمنی
شهناز
شاهیندژ
جامهای
کلیات
##باغی
مارون
##ative
جیاس
چرن
کاتالان
گریگ
میگذرانند
مدرنیته
حیواناتی
۳۸۱
اندروم
گالیله
فازهای
۱۸۴۶
مالیاتهای
هفتادمین
کریمخان
رنچ
عنکبوتهای
رودریگو
تروتسکی
ابرکوه
non
خیم
فدری
هکتور
##ماید
انتیب
##سیونی
روندی
##وردا
دورف
##کتین
کردهایم
##نامهاش
بانگ
##els
پارکینسون
پریشان
سرماخوردگی
۱۸۴۴
بریتانیاییها
begin
لیبرالیسم
متالور
راینلاند
میزیسته
یوزپلنگ
محکمی
متجاوز
العدل
لادی
هشی
پرید
کتل
##com
امسال
کارفرمای
بیسو
مجیدی
ادیت
زیرو
##بانان
##واچ
مصح
سنبل
هنرها
فقرا
مهرهای
مهرهها
سوروس
فریدن
سرکوبی
کوششهای
ویرجین
##کیلومتر
۷۴۰
جلالاباد
عزالدین
بهمنی
شعلهور
فیتز
تبعیدی
گجرات
اوقاف
data
wid
ضیافت
قطور
یارد
##wor
##خیری
##اهت
ارتر
مدولاسیون
##وزر
کنجد
جهادی
پیگرد
اندروز
بلاش
اکری
جهانیان
##نتینا
هندوها
##ipt
اپتیک
نفتکش
۲۸۹
لایو
صبحانه
airlines
انریکو
دلیجان
نافرمانی
fm
زون
ضریح
استپان
همف
منبت
کردار
##گیان
بیج
##احمدی
نشاسته
سوف
علیشاه
مستض
مکینت
##انسون
خرمد
تخمینی
جیانگ
ابیک
عدس
تیرههای
هلنی
نیکون
لولهها
نشانهگذاری
۱۸۳۶
۱۸۳۲
۹۱۴
قارچی
شکافت
کنیز
قالیبافی
نبودهاند
بولیوار
باهنر
گهگاه
small
میکشاند
واداشت
دراویش
بنفشه
mel
تریب
پگاه
درت
##ونک
##روزه
##اردشت
##یشکل
ویکتوری
بازمان
بالدار
تبصره
تجریش
جامعی
##خوو
##سوو
کورنر
خوشاب
سقفی
صنعتگران
مختاری
بقایی
تکنیکها
غلامان
جلبک
۷۷۷
هتلهای
عمیقتر
۱۸۲۹
ترکمنها
ارایههای
ناقوس
46
ذبیح
ساینده
فص
چات
##نار
##عالی
##فید
##امات
اماندا
موتل
دوخت
هرن
علین
##شیان
##کوههای
تبحر
کوهپای
پاران
شیرها
امپراتوران
جوانمرد
گورجیف
راسهای
العرب
۱۲۸۸
همدردی
بدهیهای
جاودانه
تاکتیکهای
نریمان
نیازمندیهای
فراماسونری
اشته
سدهای
پز
گارا
۷۱۰
##چهر
##fo
##ven
##ندار
##امار
##لیتر
فرشهای
الحسین
##کیب
ترومن
تحمیلی
میرفته
میراندا
اسلم
افزونه
صنعا
کالیفرنیای
سیلک
اکسپرسی
سلاحها
۱۸۰۵
درجهای
راکتورهای
کوهنوردان
بوفالو
درصورتی
عاد
فالتس
قالبی
بهسرعت
برط
امنه
اموزی
##اسن
##الیستها
##قیس
##اطت
##لوپ
شاهسون
جهانگرد
کلیدها
مارن
اذان
درجهبندی
چاپگر
ریاحی
سلولز
۴۰۴
پراش
فسخ
موافقتنامه
ریتمیک
لنینی
فيودالی
سندروم
hp
ul
اگار
شسته
قصاب
هلیل
پوه
کخ
##38
##وریم
استران
باپ
اینو
##تیکا
متاکری
دوطرفه
بیابند
پیشران
عباد
##anch
اوریم
مستی
پیرام
ایتم
افرا
مینواز
لوور
بیرویه
اچبیا
تصویرگری
نیویور
نیروهایی
۳۸۸
ناگویا
میگرفتهاست
۸۴۰
اتوبوسرانی
چشماندازهای
زايد
##صادق
گلشیری
ذرهای
##قص
##ورود
##ترتیب
نیومن
##لاغه
نمکهای
پسوریا
##وساک
##بالا
تصمیمی
۱۸۱۹
##ison
اردلانی
۳۰خانوار
هلدینگ
۳۷۲
دایانا
ونسان
رومیزی
ليونید
داوکینز
۱۷۸۹
ابوعبدالله
بهاءالدین
خاقانی
پروفایل
تسی
##وث
##cd
همنام
##اشین
##اندیش
نامشان
اتات
پیشدر
بینتیجه
علوفه
بلش
قلات
فرودگاهها
فیور
##نتاین
میدانم
شوکت
طرحهایی
شاخهها
۱۸۳۱
نوشتههایش
اونیل
زنگبار
متقاطع
parish
پارامترها
انزیمها
##issement
صرفهجویی
ناهنجاری
پسوریازیس
hum
ساطع
##چاق
##چنین
اناند
##لیدی
الاستیک
اشپر
اهانت
ریودو
اغوز
امارگیری
اروند
ستود
تهمت
ژانگ
عبدالمجید
##ووکا
بادبان
پیمانی
ناتان
تبلیغی
سوزا
۴۶۵
۱۸۰۷
بولتون
۱۲۹۷
سنترال
الساندرو
سملقان
mot
pin
دسر
صع
ژرمنی
##لوت
##چلی
##حانی
##السی
##ریبی
یکنمونه
معیاری
نواده
قرارگرفته
##ناء
استفانی
##۰۰۰۰
##ابراهیم
لیب
مکش
نگین
##وسیوس
کورس
##ووانی
۳۱۹
۴۲۷
کمپانیهای
شورشها
جمهوریخواهان
دکارت
هرمزد
یادداشتی
گوارا
الفردو
افشاگری
جبالبارز
شکوفه
طیفسنجی
virginia
اچبیاو
اریش
ساید
ووت
چز
کاور
##ماز
##وودی
درنگ
بهطوری
سالاد
مشکین
کلکته
اقرار
راهبر
شیپور
افراز
رایزنی
##وفو
دریافتکننده
ویلیج
سودمندی
فولادهای
لایف
۳۴۴
ونک
قاينات
شتابدهنده
زهکشی
##ondissement
علاقهمندی
point
awards
اغتشاش
arrondissement
مزدیسنا
000
field
lar
زکی
زلاند
هشتی
##por
یکدست
کارپ
اتاری
شبنم
کوچی
ورزشگاههای
نبوت
نبوغ
##نسکی
والف
استعاره
دموکراتها
##وندیان
بروجن
گيورگی
سیگما
big
ti
تریک
سيو
لوان
ژوپ
##فلر
یکسری
##انیسم
رواد
ویزا
ابگیر
فیلترینگ
کشورشان
دانشمندی
نشیب
##ساندهاست
خوانش
##انسن
مسیه
چرام
کوتاهمدت
والش
تامینکننده
گشتاسپ
۳۷۹
۳۸۴
هیلبرت
بخارست
درازمدت
چمبر
شمشیربازی
لیبرتی
توالیهای
دانشاموختگان
نکنید
ترانزیت
rem
یم
##پومرن
##ژک
همکلا
##ونیوس
پرستون
همانا
ترکیهای
یونها
بستهاست
جبهههای
##پوشان
سوارکار
تاجیکی
سفیران
فلسطینیان
زغالسنگ
بگویند
paul
قاتلان
تجمعی
مکدونالد
فاب
ورب
کولا
##تبار
##گامی
##گلو
##ci
##طینه
اینت
##اسار
الاست
معضل
##نیاز
بازهای
کندو
شهابی
اورانوس
مستشار
نسبتهای
##als
وسوسه
ناچیزی
۴۰۶
مبارزهای
۳۴۶
اریتره
ضراب
پدیدهها
محلولهای
مینواخت
دگرگونیهای
بالتیمور
بپر
##27
##فام
##jo
باکی
باکره
انبیسی
راتن
شدیم
دیکسون
دوه
پروندهای
کلمنت
##شنام
سبا
سازمانهایی
جانکشن
##وپا
اشتعال
نفتخیز
مجلههای
ارزنده
##الملوک
ايودی
2003
سوارهنظام
دراگون
خوشبختانه
ذینفع
اژه
شفاع
طمع
كند
واید
وندی
چیم
گایا
##جثه
##mi
##yt
استنش
سردهای
دوجانبه
##برتو
مجریه
سپردن
تیموتی
ملای
فلاندر
میلیونی
ولگرد
بانکوک
ساختمانهایی
کمیساری
##ream
جیان
ناجی
جرارد
ریشهها
ریشهشناسی
۶۷۰
فتوا
تثلیث
مسافتی
شستشوی
شریعتمداری
کردهبودند
باباجانی
##جوق
استاتیک
##اتار
##هروی
اوکی
الفی
##تیوم
مجریان
تریر
اتانول
پیس
کیلووات
##ومیان
دلف
نورونها
الیکایی
##ures
۴۰۱
##eta
تاکدا
پاسخگو
تریپ
استیونز
لاگران
سخنانی
۵۵۵
هرمس
چغا
متقاضیان
انتیبادی
حری
خراف
قندی
۸۲۰
##سره
##کرک
##بلند
##فسکی
##ارایی
بریم
##ومیا
السالو
##ادیس
کوکی
سهتار
شهود
میانکوه
مخد
نشانده
##ister
عبدالرزاق
پوشی
ویژوال
باغستان
بدنسازی
خوشههای
۳۵۷
مزاج
۳۶۹
۳۸۶
مستندسازی
فلزیاب
فواد
انحرافی
۹۶۰
ایکسباکس
مدعیان
لنکران
امانالله
خیالپردازی
میهمانان
هندرسون
سونوگرافی
اپیک
تارا
عطفی
هگ
هومن
چدن
کايو
##طوم
##شتم
الاز
الوز
الپی
موشی
میشه
نیوا
متش
معاص
جزایری
جانز
موسیقیهای
##atch
مالاوی
مامایی
ins
۴۰۸
زمرد
مارکوف
موزهها
بادبانی
فریده
اکسپل
تنگستان
۴۳۵
ماکزیم
۱۷۷۶
کبرا
مستعمر
کنشگر
استریپ
ابوموسی
لازمه
calif
میبندند
دگرباشان
ni
بکنند
تلا
##امدن
هملت
##روده
ایگن
نیلی
سرایند
بیسیک
##بانک
متحول
##داون
##ولیتن
پدرخوانده
##ating
##وزیه
وساطت
ماندلا
کلاک
پالرمو
تفاوتها
۴۵۵
سارتر
phil
##ther
دویچه
پرستوی
انحطاط
نعل
##شینند
مگاواتی
افتابپرست
ناهار
کتیبهها
کلمبی
پشمی
عسگر
##press
جاکارتا
باطنی
بشردوستانه
follow
mb
جب
مخاب
##سرد
##اگاه
##gi
##of
##ron
##فشار
##ایایی
استم
##ومنت
منیر
فرخی
موزا
کاراموزی
دستمز
اصناف
مرداویج
##زهها
##کتومی
زبانان
بالعکس
##ايین
ماراتن
پلها
قابلتوجه
شعرا
ابرهای
رتبههای
مازو
پیامبری
۳۴۸
نشستهای
چوبین
طرابلس
تخمگذاری
۷۳۰
غرض
ردیفهای
دیمیتری
۱۷۹۹
فتحی
سوراخهای
رستورانها
بیکینی
عبدالعظیم
وصیتنامه
##فیروز
سامرست
گاومیش
فابیو
سردرگمی
خارقالع
lab
pos
بخواهند
حف
سزایی
فتوای
مکران
کسان
گاوی
##بختی
##زله
باچان
اسکا
کارنا
ابوذ
مرق
باریت
##کسازی
ماننا
شیز
فاروق
فیجی
کامن
جنوبیترین
صفاریان
مبین
معرق
موریتانی
مدارکی
اختلافاتی
سانتیم
تمدنی
الحاقی
۱۸۴۳
لويیجی
کمالالدین
جستجوگر
سمیعی
فهمیدن
هایدن
عراقیها
اسکیزوفرنی
عسگری
وکیلی
00
hand
loc
ثمره
دنگ
دکان
كرد
##ced
##حهای
درازی
##ریج
امیه
##ترود
##یموتو
فرزان
البا
نیاوران
ارمی
دوجنس
##ونیس
##عداد
هرمن
سوالی
نقشها
قبضه
##گریت
نهال
کالایی
پنتا
جیبوتی
خوشحالی
۲۹خانوار
واژهنامه
۴۰۷
خورخه
ماریان
تحلیلگران
۴۳۸
سوزش
قهستان
۱۸۰۸
کینز
لارس
بلکبرن
music
فرگشتی
june
لپتاپ
ماهیدشت
مکینتاش
cle
pap
حیله
شورت
وون
##فردی
میپردازیم
استاک
باگر
##روند
دوار
##وتل
گرومن
بیجان
افضل
مهریز
بدفورد
برگشتی
پنجشیر
فیبری
##انتز
گوژ
نرمی
میدوی
فضاها
امیرالمومنین
تسمه
۳۶۴
دستیاری
۶۲۸
هوشیار
۱۸۰۱
تجدیدپذیر
وزنهبردار
میاندیش
صداپیشگی
اریانا
fin
gold
set
عشر
قوری
لخ
هجو
##ستور
ازلی
براندن
انبیای
فراد
الرژی
##ادیق
دوکنشین
کرامت
ابزیان
داشتیم
ارتوپ
گردا
بلدر
دورهها
مصی
جهانگردی
مارها
مارینو
خوانند
رودلف
جلوس
مالدیو
##ros
۳۲خانوار
توپوگرافی
صحبتهای
موشکها
2005
ویروسهای
ابعادی
بازنشست
ماموریتی
قصران
تفنگدار
ایسنا
جمالالدین
دستورالعملها
صخرهها
عیوب
میثم
مطلقه
پودلاسکی
کمیساریای
sv
تونگ
داسی
سودی
##کله
##اوان
##چاک
##ward
##mm
شدنی
اوشن
توکل
کارم
##بالت
پردههای
تنبل
هیپر
اسپار
گونتر
اهنگهایی
##وپلاس
##row
۴۵۷
۳۷۱
۴۲۱
سهامدار
غارها
ارسنجان
کنفرانسهای
موضعگیری
زامبیا
پروانههای
بافندگی
هانیبال
صلحی
دوقلوی
کوارتت
یبوست
اولیویرا
47
بفروشد
لونگ
مگا
ممیز
##شها
##yd
درخور
راسی
سرپیچی
کارساز
قرینه
نوینی
ترنج
کردهام
مصدر
انگلیسیزبان
اثرگذاری
کانتر
اسمارت
تدابیر
مبتکر
عثمانیان
پردازان
۳۷۸
خطیب
خوابیده
۱۲۸۰
مروج
اندامها
گاردنر
فرسنگ
استثمار
بدرود
فرنچ
تقیزاده
##ارضایی
گروگانگیری
اندریاس
فلاور
ازبکی
##وباکتری
بیخانمان
californ
مخابره
شوین
عریان
##گوا
##زبری
##چاه
##خانیان
##غز
امونیوم
اوند
دوور
سیست
نوای
دهک
پسزمینه
اولتر
ارتج
بنوا
نسرین
ریحان
کانتور
##ناسیونال
کیج
کامکار
##زبورو
##مندانه
حیفا
ایستادن
ناکا
۲۹۱
تکنوازی
خطرناکی
۳۳۹
فرارساندهاست
تولدش
مظاهر
##iff
apr
##چنکو
تذهیب
هادسون
عتیقه
فریتس
نافرجام
فرگوسن
january
شاهرودی
مفعول
tom
بسم
سوهان
##85
میطلب
میوزیک
امشاسپ
شهراورد
##ربرگ
##بیس
##الیاست
پیشینیان
رویترز
بازهم
ورت
##جیک
گلولههای
برگمان
##فاژ
یوگا
وسايل
##rol
زندانها
##ادولید
روباز
def
۳۴۷
بروزرسانی
کازینو
سعداباد
وخامت
مکلارن
فلاندرز
مندرج
غربالگری
اراگاتسوتن
باهاما
has
sing
نانت
ژیر
##جانش
##ool
##95
##ولم
هموط
##نگرد
اسای
##اندام
سیوند
نوایی
اشغالی
مشوق
نقط
##اپا
کلاردشت
کتابدار
کتابشناسی
جایگاههای
ورونا
لیبرت
هیکل
دلت
پدرشان
محدودهای
صنف
نمیگردد
دیدهبان
تیران
سختگیری
##urn
کاتالیست
پولس
۳۵۳
هیدر
کوشان
۱۸۰۹
۱۸۲۴
##ney
ویرانگر
کاراکترهای
سیریلیک
network
مافیا
منسوجات
امپریالیسم
300
river
جایش
##واک
بابر
##ریختی
##ویست
##اسونیک
##ترون
روچ
ابج
میباید
ریکی
فعالیتی
واژن
سنگسار
اذهان
انسانیت
نوشتارهای
بیماریزا
استادانی
کاتالوگ
ماریجوان
ویتنامی
##شاگرد
بهترتیب
۴۱۶
روغنهای
گرافیت
۸۸۰
یارانه
سپاهیانش
قنطور
لوتوس
شهابالدین
ماخوذ
ابرقهرمانی
رباعیات
41
دمیت
کاکس
##ژا
##uan
##خیل
بهسر
توشی
شهرضا
افش
شهداد
قلندر
طبخ
تورس
ندیم
چرچ
##انزویک
سیلاخور
درخواستی
اروپاییها
دودانگه
۳۷۳
گرانترین
۶۳۲
پرتابگر
##محور
هالک
تظاه
انبارهای
مصوبات
منتهیالیه
گناهکار
بارتون
زاگرب
جاودان
السالوادور
جویم
جباری
##وگا
##شدهای
##ودریا
توسی
مساوات
نامند
ارزر
دوج
دواب
بوکا
##ونیای
مردها
دانشهای
انجمنی
##منط
دریاچهای
تیمسار
فعالین
##ايف
هایپ
##طیف
فشارخون
خوردهاست
##شهدا
کولونگا
خریده
کلمبوس
ابشارهای
دهیاری
اوکیناوا
لوسین
ریهها
نارنجک
تجمعات
سنگنبشته
موتلفه
sel
سربی
لوبی
##xx
##السلطان
سالت
روث
میشدهاند
نامتع
بیع
کرین
##امیس
کشورمان
ترسی
پیانیست
علفهای
بازپ
میرزایی
جزوه
کوچص
##رافورد
سرزمینهایی
متعصب
ادعایی
۴۲۸
دزدید
سالیوان
عشاق
science
یاسین
##ize
colspan
مزیتهای
بابیان
علاقهاش
ارمانهای
لاریجان
میمیرند
میاندازند
مننژیت
42
jap
تغیر
داره
شایر
واه
گبر
یقه
##ژین
##ique
بردارند
انطور
سالخورده
توج
ترنتینو
هدایای
دریاس
##جمال
بابلسر
دمیر
درهشهر
ناپذیری
اریس
۴۱۵
اربابان
##خواران
ادمها
۸۷۰
نوکاباد
واقعیتهای
##ماهیسانان
بیثباتی
نمیخواهد
تسلیحاتی
ابرنواختر
euro
nm
num
بطوری
تلو
شوارتز
غایب
قاد
##واقع
##ستوی
دراورند
انسوی
##سیزی
موند
خودارضایی
دیالک
اقاب
گرداند
لیس
##نهارد
راهراه
نیروانا
کاناگاوا
درختچه
##ural
##ido
۴۰۳
رضاقلی
ماشینسازی
سماع
پاپیروس
۷۰۷
dem
کفشهای
۳۷۶
سایبر
۳۹۲
۱۸۳۵
۱۸۳۳
قصاص
spec
اروماتیک
کانونهای
sept
لورنس
محرکهای
گاوس
ضعیفتر
اسایشگاه
علامرود
نعمتی
کمنظیر
متالورژی
gn
جوم
جلیلی
ضی
فنگ
لانس
##کونه
##چوو
##ستوس
##ینان
فرشید
معظم
گرانی
ارتریت
اورال
##وکراسی
سربداران
نمایندگانی
رخنه
جغتای
##ets
۲۰۰۰۰
۳۶۸
قیصریه
۴۴۱
۴۳۷
۶۵۶
۱۲۸۶
الفاظ
بسطام
کشمش
کافکا
کاکايو
استهبان
جمادیالث
میگریزد
بودیسم
رقیبان
خربزه
ناپیوسته
ear
خب
فواره
لیتی
مونا
##نبورگ
##ژر
##eg
انر
همکف
روبات
توپی
محصل
دیارب
مداد
##ناپذیری
کمبل
پیپ
انگلس
ملیتی
بدمین
بنزن
شیک
اصلیت
مارگون
مورف
##مبلی
۳۵۴
ماسو
سرکشی
روایتگر
سلیمی
۴۱۱
اندازهگیریهای
اگزی
هاوک
united
اخلاقیات
تیتان
ایامسی
ناهمو
franc
ext
##eee
ویراستاری
التواریخ
پوسیدگی
وثوق
قنطورس
nh
خونه
رونده
لولا
گوتن
##craft
امیت
موجه
نامنویسی
##لاء
گرمه
بوچ
##اکرت
خوابی
راهحل
##سانو
معمای
فلاش
هنگامه
##وستا
صدابرد
حملههای
سکولاری
پایینتری
ناکافی
محدودیتی
وبلا
۳۳خانوار
تازهکار
داروخانه
هیدروک
مشروبات
۳۹۴
میخوانیم
۵۹۸
مبلغان
مخاطبین
march
باخرز
راندند
تکهتکه
نواوریهای
refer
میسرود
ارزشیابی
کاتالیزور
##پژوه
الرحمن
کفتار
عتبات
بوانات
همکلاسی
دیاربکر
بدمینتون
65
خصی
سمیت
هوری
##نبی
##وستی
##شکنی
##عفر
##حض
##ər
یکت
امپول
الویس
ایرنا
##شمن
##موج
ارتداد
ملکم
شبستر
کنندگی
پلوتو
##its
بانفوذ
تحصیلکرده
مورس
وسکر
سفرها
لیگهای
##لیتس
۳۵۱
هلمند
۳۶خانوار
اسیبشناسی
کروس
۴۵۸
صلحامیز
اختلاس
بیدگل
کولون
۵۱۸
بازدیدکننده
ابواس
##پوستی
##خدمت
امتحانات
اسکورسیزی
شفاعت
gov
rich
سویه
غش
غمان
نال
کنیه
یونیک
##شیدی
##فانی
##ար
روایاتی
مدرسی
ادینه
##اخوری
نسا
گروهش
##جیانگ
قبطی
یوکی
سورس
پروتي
##اکیان
رزولوشن
متوسل
۴۸۴
۴۴۵
۳۹۸
رابرتس
بنامهای
گردیدهاند
##ally
گویندگان
نيوکلا
سوپاپ
زندگیشان
باتلاقی
artic
انواعی
ریمیکس
ابونصر
وگرنه
میشناسیم
بلدرچین
california
ماریجوانا
ieee
تورت
خندان
پینو
##37
##well
درفش
##الز
##ریتی
موزهای
گرلز
تقلیدی
##گرید
محمدکاظم
اوراکل
لوپ
##انتین
بهعلت
مرتبا
مولفان
تصویرگر
روانشناسان
۳۵۹
champ
پراکنش
معمولترین
قراردادن
همجوشی
##ماهه
مخاطی
۷۷۰
۱۸۳۸
appl
کرتیر
دندانی
فرورفتگی
هاگوارتز
اشتراوس
##کیرشن
ببخشد
مسالمتامیز
ash
اگه
تانا
جراحت
شرافت
غشایی
وفا
##لایه
##شاید
##ning
نیگاتا
ارمین
دوسل
دهج
بازیهایی
کنشهای
##منش
تمشک
فعالانه
فرانکها
شنل
ارواره
##وکش
نمیگیرند
کمیجان
کاریکات
خداافرین
روشنتر
سیروان
۳۶۲
۳۹۶
اتومات
کنسرتی
سراسی
رنجرز
۱۸۲۵
کویینز
ذوباهن
رحیماباد
منازعات
جنگافزارهای
صهیونیسم
##وسکوپی
بگریزد
وسواس
صداوسیما
جمادیالثانی
cen
line
هلیم
پریز
ژيوپ
گنا
گیره
##نوردی
##بدن
##fc
##سیز
همزمانی
سرایان
دیزی
ویچ
نمازی
مرقد
کلت
##لوو
##بهار
##شدند
فروبست
الیگ
##itch
پایهگذاران
جوانرود
محمدیه
۴۸۷
۳۹۱
سارای
العین
۶۲۵
۱۲۹۶
۱۷۹۸
۱۷۹۵
فالکون
طباطبايی
اکستروژن
طایفههای
ویسکوز
کوکايین
گودرزی
علینقی
ماکزیمم
mi
py
گودی
##gar
##خوری
##44
بابال
مقال
سناریو
سلفی
اسپان
##گزینی
ولدم
دخمه
نمیباشند
پژمان
مسیرها
۴۰۲
حراست
کرباس
اصلاحیه
۳۶۷
۳۷۷
۴۴۸
کاستیا
تولدو
گندالف
اعتبارات
۸۳۰
هوشمندانه
سیتوپلاسم
بخوانند
میداشتند
چابک
البیون
تربی
نادو
##قرا
میپیوندند
فراست
الکان
##اشه
کارین
ویار
بیاد
نوظهور
ابیل
##کاگا
##وبیا
ادمیان
##وارک
##زهی
نسلی
لیبریا
هیزم
سلنا
تعدد
##تاوی
اسکوشیا
پوشاندن
##ild
متنفر
##ops
کمپبل
۳۶۱
۵۳۸
مقیاسهای
غیرمسل
شمشیرباز
add
یاسوج
ریمان
گوسفندان
رستورانهای
لوزالمع
شمشیری
سینماها
باسواد
lou
بسا
عادات
قلیان
لنجان
##هد
میپذیرند
##جهت
کوتی
عبدل
بلده
##ینگا
##باء
پیریت
اسپید
فلمینگ
ابرسانی
##والا
بدنشان
##مبو
۳۵۸
ارکید
اطلاعیه
اریست
دایمل
ابوالعباس
اندرونی
cons
شجاعی
##گورود
adv
مباحثه
##tment
server
who
گیگابایت
lu
post
sio
wol
اکن
حارث
زاو
شپرد
عاقل
##شیم
##ker
##طین
##الاصل
باو
ایندهای
امبول
توبی
برایتون
کردان
##فرون
کارنگی
نمیاورد
جهانش
##ارکونیک
ممفیس
رودز
محلاتی
یهوه
پیشرونده
##لیمتر
عصبانیت
۴۴۲
۴۲۹
##وچین
##بازار
کوچکترش
۱۲۸۹
پارامتری
کینگستون
مصاحبههای
کاترینا
هابسبورگ
##فروشند
سرگش
##قعده
type
رجیستر
بااینحال
august
گغارکونیک
52
ku
los
تانی
رزی
فریز
پانی
گاگ
بهاره
معناد
مجلهای
پسماند
ترون
بازل
میدهم
هیگ
##سانا
سلین
فرودو
منتشرشده
##mus
اپال
##لزل
سودا
عباسعلی
پناهجویان
بیدل
۴۸۸
النصر
۴۷۶
سامانهها
بنگالی
دیلن
نامیبیا
نشریهای
مندز
mach
فروشگاهها
تناسبی
اشیکاگا
زیربنایی
کنجکاوی
santa
دوسالانه
dos
kg
lim
شعی
شلم
وله
کونت
گرک
یق
##ثانیه
##لیکا
##ومب
ایوا
سرایت
گرگین
##انشهری
##بانده
بدانید
##کتو
##کتها
بزرگانی
کندوان
##oria
اسپیرز
مورب
عقبی
جداش
زیباست
امیخت
انتقاداتی
درخشید
بختیاریها
۹۳۰
زادروز
سیارههای
ادرسهای
قشرها
نورتون
مونوکل
هراکلیت
cross
بشقاب
کوچصفهان
dar
down
fal
زنا
سلاج
فاس
پریان
کالت
##خورک
##قاب
میوز
موتو
جمالی
##میلیمتر
پایا
##مدن
مهل
##کارانه
##اوردها
شیو
##ويو
اگرگات
مکالمات
تکواژ
##گزین
عملگرهای
کاهن
مادرشان
گزارشگران
والیان
تابستانها
۶۵۵
۵۲۸
##ogle
برمیخی
۷۶۰
۱۲۸۷
سوسمار
وسطایی
اتوبوسهای
فهد
زنبورهای
manag
تفتیش
نوشیدنیهای
دقایق
خداداد
ژوپیتر
creek
سیش
##يك
##چوبی
سرشت
نامیدن
دوخته
اصوات
کوژ
بالون
فرانکی
##ندیده
سلتیک
اکستر
اکیرا
افرود
##ونتون
اذین
دانند
##سلت
هاوانا
پايیز
کنگان
غلامی
retr
خاوران
ايران
۶۹۰
همجنسگرایانه
مانیفست
حفاریهای
پرهزینه
معاشرت
ماتیاس
windows
هیيتی
کاریکاتوری
لوزالمعده
ریتا
صدم
وایر
گوه
##بالی
##ni
##ctr
بهواسطه
الوه
متالی
ارنج
مقعدی
##ایتون
جنگیدن
تصنی
دوما
لیسا
هیپو
حکیمی
اکین
نیمهر
مطالبات
بلوکی
##ily
پیوستهاست
کرهجنوبی
قتلها
دنیوی
دودکش
سرکش
هیدروژ
۶۱۸
سیگنالها
##چنزا
میبینید
یدک
بالگردگاه
##ویروس
انتزاع
ناپایداری
هیبریدی
متروپولیتن
کنکورد
فرونش
کرگدن
ابوذر
ولدمورت
سلاجقه
500
خفته
غفلت
##میا
##ky
درها
بهشکل
##ردار
##استا
الاد
روزنامهای
##باچف
مکاش
فلان
رشتهکوههای
موران
##ریشیا
بابونه
نمیشناس
توزیعهای
##پاژ
گنجش
۴۸۳
باریکی
دیدگاهها
شانون
درسدن
مظل
فورست
رویدادهایی
۱۸۲۶
وحشیانه
الگوها
دوبلاژ
گوتینگن
پلیمرها
غولپیکر
فهمیده
ستیزه
الرشید
سمندر
وایکینگها
سنسورهای
تمثیل
اندرومدا
power
دوان
شوان
مگان
هوب
وپ
گزن
گارف
میشکند
دییی
##بالدین
##متن
سهیلی
شنوندگان
##اجرا
اکون
دلفی
##وکسید
انتقادهای
جلگهای
بورو
۵۰۵
تکنفره
##ote
##oto
۴۵۶
گذشتگان
۴۴۷
زمستانها
گفتگوها
پاشیده
گربهها
سولفور
میشنود
ناسیونالیسم
زیگلر
##ودینگر
حکمرانان
بیوتکنولوژی
ژيومورف
اسپیلبرگ
مصیبت
53
ray
ven
بشاگرد
ریدی
ظن
فطر
قوز
لاستیکی
مکا
نول
نابه
##گسی
##پتا
##خودی
##قار
##ورر
راغ
روض
اولیس
نیوت
سرامد
کارکس
ارده
ارضا
##اکتور
دوروتی
مرغی
نشن
اقق
شهوانی
چهارباغ
مردمش
مستاج
پیرنیا
##وفسک
دستگاههایی
عدنان
خاطرنشان
مراسمهای
بادکن
صحنهها
۴۴۴
امیدواری
کامیابی
کاردی
اشتیان
هویزه
کارکردی
چوپرا
عمادالدین
ارزروم
علامرودشت
dan
توله
تینا
خاوی
دابل
یالی
##iat
##gs
بربری
انکش
انزمان
##لیگ
راورز
تاي
تاور
افشان
مهین
بدنام
##ering
۱۵۲۴
شمالغرب
توره
بهرهمندی
تیرول
سانتر
مهاجرانی
کربوکسی
خصوصیسازی
اعتص
شاعرانی
کریستالهای
ادیبان
نادرستی
۴۲۴
العابدین
سرمایهگذاریهای
اسپرت
۹۹۹
##ista
##ماهیهای
حوادثی
مکررا
27s
شبهنظامی
david
غزلیات
width
روادید
ذاتا
رفل
ورید
۹۲۰
##یاما
##غلو
##لیق
##کنتر
مرثیه
هراد
##رفیلد
بنکس
زمینساخت
ملز
اورنده
##وقا
کوچههای
زننده
کاهنده
##وزید
مهرجویی
نظریهها
۵۰۱
گوشهها
دیروز
برداشتند
۴۲۳
۴۱۴
۴۱۲
واژههایی
اوازخوان
۵۴۵
موسسهای
ايورت
انتیژن
کینزی
یارسان
مدرسههای
صالحاباد
نطق
پرسیده
گوساله
یخچالهای
ابردین
den
سوه
طالع
ووک
ینی
##سلام
##ces
##صاف
##حص
برهنگی
راویان
امدی
نیوپ
دوبری
بیاموزد
##کیج
دهات
مشق
کمخونی
##اصیل
چندر
لیبل
نهتنها
ستاری
لوزی
البانیایی
مشغولند
تيو
##پردازنده
مریض
۵۲۲
پیشبینیهای
سخنرانیها
اعتمادی
منزلت
جامدات
کویین
عقلانیت
منشوری
grand
حریفان
زارع
اسفندیاری
نشینان
سارگسیان
retriev
aus
dong
om
pas
جاها
حقی
مکلنبورگ
وويل
کتون
##گله
##جربه
##do
بهزیستی
برنجی
##نیهای
بیپی
مدون
کرال
کرمل
دارسی
بنفیکا
لیف
شاهپور
چهارگاه
عرفی
فیب
رهنما
۲۴۰۰
پوشید
##وینا
کورا
بستهای
فیزیولوژیک
۴۱۷
۵۷۵
نازنین
۶۷۵
اکبراباد
۱۲۷۰
الواح
اساتیدی
google
poly
جاجیم
معافیت
میورزید
پیرامونی
gp
جاست
جازم
ربودن
##زک
##kh
##امههای
اوکل
الاح
##گرس
سرپ
##وتور
##انشناس
دادخواست
شرمن
بلوتو
گلوریا
مارا
فلین
کاماکورا
کنتراست
کورنوال
خلعت
۶۰۲
الفبایی
نشدنی
خالکوبی
لاکت
کروماتو
۱۸۲۲
بدیعی
اژانسهای
بازگردند
توتال
قهوهخانه
منقول
گذارند
خشنود
پرستشگاه
هرويین
برچیده
اپارتاید
پومرانی
hr
طره
فصی
پیدر
##سفات
##چری
##یناس
استروژن
##رداری
توین
##کنهای
ایری
سرایی
واقعگرایی
میلهای
انجیلی
شورلت
تحتالح
صفاری
الممالک
کوته
##وپروتيین
حاضران
جیووانی
فهرستهای
خبرهای
شعرش
کربلایی
معتصم
کتابهایش
۳۷۴
۳۸۲
عاشقان
commun
۶۴۲
دلاوری
خزانهداری
متابولیک
امیزهای
فوکوشیما
بلومبرگ
موتورسیکلت
japan
lat
بویز
تکوین
خاچی
رنک
نذر
هب
واند
##رفته
##هجری
##wan
##سیست
##ومندی
الکیل
بیوتیک
اتشک
انجامی
نشیمن
##نجار
کیلوب
فعالسازی
مصلی
##دانس
اکبات
اکتیو
دلپذیر
مینودشت
ولادت
##والکتریک
ارتشبد
مورا
مشترکا
۳۵خانوار
شدیدترین
دادگاهها
مهدیاباد
##جعفر
فیلیپینی
موثرتر
۵۵۲
گیتس
نرخهای
کیناز
ارسباران
فایرو
همسایهها
تخلخل
تفرقه
great
گورکانیان
فلامینگو
فدايیان
رفراند
نکوهش
والفجر
hen
hot
las
بقی
تاه
خصل
لاست
##قندی
##ینر
انارک
منجی
فراص
توکی
موعد
موکول
نیفت
متخاص
سرخاب
دوبار
سیبیاس
بیام
##اعلی
مرام
افات
افاف
##گانا
اجدادی
کلانشهری
##کردها
جنگیدند
بلدیه
ترکیباتی
نمیپذیرد
##بورا
فهرج
ازدحام
۴۰۹
تدریجا
رانکوه
۴۸۶
ناشنو
انفورم
افتابگردان
مراتبی
محافظان
صفیالدین
white
مطمي
زیمنس
سوالاتی
اقلیدس
منوچه
انیمیشنی
خازنی
موعظه
اگزیستان
bad
gi
دونت
قارن
پلید
۸۱۰
##ов
##ادیا
اینف
قرط
دوچ
##نیفه
نوده
##التا
اذرین
خانههایی
هفتههای
مرتع
اکتفا
##olo
ازمایشهایی
##chen
یافتهها
گوراب
رشتههایی
وینیل
سانتو
depar
بندرگاه
##العلوم
اشعری
۶۱۶
۶۶۱
##iang
ماهوارهها
شایعاتی
هردوی
یکنواختی
برخاستند
indiana
حواریون
زمزمه
نمیتوانیم
instit
الازهر
84
rob
yo
کیری
گبری
##کرو
##32
##pur
##zz
##ضلات
سرشناسی
سیکس
بیوگرافی
میکا
دستساز
استفانو
ترای
اولریش
##اخلاقی
##کسر
رفتم
##ومتریک
فلای
مینمای
بردلی
موضوعهای
##چرخ
نراقی
بورژو
گریبان
استانداردی
##عملی
پانچ
نشستند
##ايیان
روسری
دبیره
تارزان
ایوانز
کانالها
قاعدهای
وعدههای
عاطفه
تاجران
اسکوير
design
قوامی
مسبب
استمرار
دایملر
department
سوا
في
فوریت
نیدر
چوسان
گرید
گلیک
##حسینی
##ثنی
ازنظر
انفع
فرغ
التا
الکال
ادلر
اصله
پیشاور
گروهبندی
نظراباد
##پرایز
خوانندگانی
صدوق
مایعی
تاثیرپذیری
کورتیس
عواط
##خارجه
##omb
کفشک
حجیم
۴۴۶
۴۱۳
هورمونی
under
بیهق
انجاییکه
قضايی
میفرستند
والتون
##bury
انصاف
مینیمم
لمباردی
اوربیتال
دستاندرکاران
retrieved
95
key
run
vi
تیه
فخ
قاف
پینی
##گها
##گوشی
##زبی
##جلی
##vi
##ابنی
همار
روبان
اوزان
سرنا
اعصار
دادسرای
##اخانی
باربار
##شکان
تقدم
ماهنشان
معما
جوینی
تابیده
کوچکش
انتشارش
##hem
مولود
اپوس
سیمها
حوزهها
سفرش
پاکت
امرسون
برتراند
وینر
کریستوف
اریاییها
بشکل
فنیقی
۴۳۲
۵۵۸
۶۲۶
گشودن
منشاء
adam
وصلت
گاود
ربیعال
نوشابه
صمغ
مرمریت
علماء
نیایشگاه
ایاناس
لاپلاس
فاشیست
جازموریان
bab
cad
tu
wood
دالتون
سایل
غف
نویل
##فکس
##انزا
##ارسی
یکچهارم
اوف
اواری
الاحمد
اسما
##گیو
ادوبی
پیگیر
منتفی
۱۸۱۸
۱۸۱۷
شبگرد
##وقوع
##جران
دلکش
بابایی
قاجاری
تاکاه
ایزومر
کروات
بایسن
۴۱۹
برمیگرداند
وستمینستر
بازمیگردند
ترینیتی
موازنه
کشمکشهای
استوریاس
دوگانگی
دلقک
dig
doc
gt
حنج
خیاط
##رویی
##ماران
##جوش
برانگیز
المر
##اشر
هرس
نیرنگ
فارو
شمالشرقی
طیور
مغال
زنش
باندهای
اجرايی
جیبی
اضاف
صنعتگر
پیمانهای
طبیعتا
۵۲۹
2004
دفعه
مهارکننده
اوباش
طوفانی
عسلویه
بارزترین
ماورای
##soft
دسیسه
مکارم
بههمین
برطبق
ts
uk
ثقفی
دایان
رزا
شوارت
شینگن
##پتر
##چههایی
##gu
##ple
التن
##اندیشی
دهلوی
دورترین
زیرد
انجلا
بدخیم
اقصی
گلدهی
فاروج
هندوکش
گیبس
الیانس
ساکی
سامن
##فظی
خلج
سپاهش
نتایجی
بایست
##ape
۴۳۹
۸۶۰
طالبی
##پایید
ارگومان
##السلام
##فارس
اشرفیه
sched
فمینیست
لاشار
مکانیسمهای
بستاناباد
سافک
assoc
پراکندهاند
زبانشناسان
خیاطی
dvd
od
خدان
هولو
وجد
پوس
چارهای
##۱۰۰
##بولیت
##ابطی
منثور
##اختیار
##گیس
##درن
جنید
خواری
اقاج
##واجی
بالله
لیژ
ملموس
جانورشناسی
المانهای
ماچ
سیمور
فضازمان
ویلم
نظامالملک
اشکالی
سیلزی
تياترهای
دعاوی
جاییکه
تلویزیونهای
##ents
۳۴خانوار
وایادولید
۶۱۲
##لاندو
نتوانند
۶۲۲
کازرونی
شصتمین
قدمگاه
مباحثی
پلههای
مودم
مکانیزمهای
شنیداری
بورگوندی
متفرق
following
دوسلدورف
تسل
نن
ندر
کبالت
##فیش
میگرفته
##یتاس
امپی
##اندوز
معبدی
ارپ
بوج
زیره
تنفروشی
شرودینگر
گروهبان
بیشترشان
اثرش
##ايیت
حمیدی
اثارشان
کشتیسازی
دلنشین
مارتی
سفالهای
یونکرس
شاخدار
نسخهها
تیربار
نجار
ماهیانه
تومیت
۶۰۵
رزون
۳۷خانوار
۵۸۵
مناسک
۷۹۰
رگبار
زراعتی
##وشیمیایی
نگاشتهاست
معنویت
درمیاید
مکلف
اراگورن
پلیتکنیک
گاراژ
سانتیمتری
ارتوپدی
mn
mur
بگذار
نپایید
یمنی
استي
کهولت
اوگوست
سرژ
کاربید
مجرا
اتاوا
##اتیس
گردونه
حکمیت
##هنگاری
دلب
وزغ
شروط
##aster
گرمابه
قراردادها
مارکز
نابار
عبداللهی
غلت
۴۲۶
۴۱۸
مرغابی
۵۷۱
##وفیز
العل
لیتو
sport
گلوگاه
tele
گرجیها
درهمسازی
اشیایی
چیرهدست
همینگوی
مکدانل
قايممقام
متاکریتیک
کروماتوگرافی
انفورماتیک
gla
md
nar
طنین
چوی
##کامی
##نباخ
##65
بهمدت
یکجانش
فرع
الفر
##ونیها
دستگرد
##ناخ
بدارد
کوف
باروی
هیز
##ابلانکا
سوماترا
یادگاری
زمینهساز
وضعیتهای
ماساژ
پاپهای
ورودیها
بحثی
امیلیا
##ston
واسکو
۳۹۹
۴۳۱
۵۳۲
ناوهای
عزیزم
ستارخان
قاچاقچیان
همایشهای
پونتی
فوجیوارا
مدرنیسم
واقف
فدریکو
هراکلیتوس
ژيومورفولوژی
hard
pi
sd
راید
لگد
ژوزه
##شون
##چات
##wn
##صف
##ولایت
##اسک
اسامه
کارامدی
##برم
نووی
کرند
کلنگ
بارباد
ریون
زندی
##کانو
ورونیکا
##کارنو
تبانی
##سترین
برگامو
##صدرا
##اینس
##اگوس
سینهای
رنگدانه
##ویتسا
داستاننویس
ساختمانسازی
وسایلی
نبش
۵۰۴
۵۰۲
برداشتی
۴۵۲
خامنه
راکون
حاجب
۵۵۱
۴۷۸
۶۵۲
۵۱۱
سنگینتر
۵۳۹
تصورات
##ube
زادگان
ایندیپند
ساوتهمپتون
شادمانی
استعدادی
بهمراه
کاکل
صندلیهای
نینجا
هیملر
ازبکان
aeroport
صاریغ
کارناوال
قایل
يا
##گشا
##con
##ایین
همسو
توح
ایرندگان
دوتا
##ونیکی
هرحال
شمول
مهبانگ
ارته
تمهید
دنور
لاتزیو
تایباد
##eld
جايی
بورژ
گورباچف
مناسبترین
##کوهی
##گردانند
۴۳۳
۵۶۲
پروندهها
۹۱۱
استدلالهای
واتس
۱۷۷۵
گرداننده
رکابزنان
##bridge
تقلبی
سرمایههای
متالیکا
dur
litt
pay
test
خزش
شستن
فتق
فلیپ
وور
یاما
##زنت
##ذل
##فاصل
برگی
##یمانی
کلوت
##ایندر
##ونتال
##ali
موساد
پرداختی
احمدخان
تایگر
کنگر
اکسپ
چوبهای
بلغاری
۵۸۸
افسرده
۱۲۸۴
فرایندهایی
prot
طلبانه
سامانتا
طبرسی
فرقهای
پندار
##ecture
باکجه
منوجان
یغما
دریانوردان
موقوفات
براندنبورگ
september
بلوتوث
اگزیستانسی
رامی
زولا
سزا
##بیش
##خس
##غناطیس
##قهر
##ولس
کاراموز
دوگل
سیسیلی
##الیف
کمیل
##اخیم
موردنیاز
احشام
راهبه
علیخان
##ستیکی
پسرها
پلیموث
مفاخر
پارکها
سادهسازی
بسپار
##پورا
ایدل
لایق
تازهوارد
۳۸۳
خاورشناس
۴۶۶
دماغ
۵۴۸
اردوغان
نیتریک
۱۲۹۵
اندیشهها
تپش
معلومات
بدرفت
نرسیدهاست
مثلثاتی
عارفان
صمص
پرینس
جاشوا
ناهنجاریهای
معیوب
محتوایی
ربیعالثانی
bell
بث
تارهای
دینگ
طحال
مونه
هاکس
##چس
##جیل
##خوس
##طاع
##ظیمی
میخواهید
انهم
##هرفته
##ربن
##نیاد
نظافت
بینجامد
بزرگوار
سنان
شوراها
##خانم
شبک
هدایتی
نوشتههایی
برجا
##نزن
شناساندن
سیرال
۳۸۹
۴۷۷
۵۱۵
۵۳۶
العربی
نازکی
۱۸۰۳
2002
همسود
۱۲۹۴
کاندوم
استدلالی
۱۷۹۷
رجبی
فتوسنتز
هویتی
دیزج
کالبدشناسی
مبالغ
christ
بگذارید
گرداگرد
ابواسحاق
51
band
حرب
دژی
رجوی
زوار
سونیک
ساشا
طوق
پاو
##view
##cia
##ودک
منفعل
الزمان
##ربند
##برج
گرینو
گرسنه
ترنت
##کرسی
گروهان
مخبر
پاراز
افتادگی
##جمع
پنل
مورینیو
هنریاش
##owo
anal
سرکردگی
امروزین
دبیرستانهای
بولدر
ملاصدرا
نصراباد
امپدانس
غزال
غزلهای
برادوست
نهنگها
ترومپت
لیونل
ضیاءالدین
متصرفات
شگرف
واندررز
تهدیدهای
نوکليوتید
تعزیری
april
cab
men
sql
work
دمب
صاع
ومبلی
##سمت
##gg
##عمر
##ан
میعان
انند
اوکس
ایفل
نیپون
بیخدایی
ابوتر
ترت
زیرنظر
شهبانو
بیمع
ایجاب
سومر
گیو
##یندل
بردیا
کاملترین
داماش
لحیم
##پلکس
ازادیخواهان
##adem
پیادهرو
لایهها
##app
سلسلههای
یونیسف
پايولا
ارجح
همدلی
لهستانیها
color
نمیدانم
ویدیوی
نامعلومی
سرمایهای
تشکلهای
سمینار
متافیزیک
گلاسگو
پیدرپی
منوچهری
عواطف
corn
good
اونز
بتر
تریف
سلا
کابر
##بنان
##پف
##ram
##hs
##49
##48
##ولاک
کاراپ
دیگه
##اختصار
همچین
##ایتو
مصادیق
رفتهرفته
جنوبغربی
نورا
##چیها
موسسین
بنیصدر
اسکیم
پاساژ
ازمیر
تکنسین
جرثق
ویتوریو
۳۸خانوار
اتوموبیل
##clude
##ساختار
ترافیکی
نورثروپ
بالیوود
بوردو
ارسنیک
غمانگیز
ضامن
فنو
ممد
ناقل
نگذشت
پونه
پونت
##لي
##vo
##انتی
میسیون
برکش
##ریکا
##ابدی
موک
خوداگاهی
نامس
ایرانشناس
ارگو
کمکه
کیکاووس
طبابت
دیدگی
نوربخش
توسعهیافته
تیزی
هجومی
بحساب
سختترین
میدلند
پولاد
۴۵۹
۴۱خانوار
گمارده
۱۷۹۴
طاقهای
تفنگهای
atp
ساندرا
استیلای
مسافتهای
سولفوریک
بنگاههای
سپیدرود
کوردوبا
میپنداشتند
رضوانشهر
الترناتیو
توباگو
function
بمنظور
ماسوویان
direct
ru
اربی
ثانیا
ظرفی
لکو
لثه
هولت
پیله
یالها
##ober
##ظاهر
بهاختصار
استاج
##سیلین
##ویله
دیکل
مدعو
مجادله
مرلین
نقاره
پرندگانی
مهبل
##کرفت
۱۸۱۶
کانتین
خرمن
##انگاری
عقبه
جدیت
##ویلر
۵۰۹
سایتاما
۳۴۹
سرکار
۳۹۳
اخترفیزیک
بیاثر
۵۳۵
زیباییهای
زرگر
۶۱۵
محتشم
تمدنها
توریست
مناسبتهای
سجده
خوارزمشاهیان
چنگیزخان
ترکمانان
مشایخی
electr
فاعل
نگردید
اکباتان
au
esp
اونو
بولا
حور
خیری
لشت
##يار
##och
درمات
بهز
املاح
تواریخ
سراینده
دیال
سیاق
اشام
ادلب
کلاش
بدافزار
بنر
لیانگ
گلم
اختت
صفوف
ماوس
مایو
اپاد
جداکننده
نرسه
وبستر
پولهای
هلمز
فیزیولوژیکی
۴۷۱
۴۷۹
##aven
رستمی
show
تمرینهای
ساکورا
غنیسازی
مهدیشهر
چوگان
flor
زیگموند
ماتریسی
تجربهای
شعبده
pdf
زبالههای
سوغات
عاشیق
عضدالدوله
تظاهرکنندگان
امبولانس
kur
main
wash
خزان
داوی
زیدان
چنده
##بارد
##res
##47
ازل
##ورانه
انشان
##لیب
راپ
##یدرو
##یموس
##اشیر
معراج
ارچ
##بیوس
گرامید
اشباح
پییر
ملیسا
تنفر
تنومند
بدگ
مطهر
گلچین
سلما
سبحانی
کوهبنان
هایده
رایلی
شعبههای
المح
والوون
##عمق
صادره
۶۵۸
۶۵۱
مالیاتها
یونیزه
۹۸۰
۱۲۹۳
brit
اویشن
هولاکو
میهمانی
انیشتین
خبرگزاریهای
فرازمینی
gran
ناارامیهای
life
وي
##cs
##حاد
##الل
استینگ
مناج
اسون
نمرات
روستايیان
##کرانی
بزرگنمایی
شخصیاش
لوچ
##یتیو
##سیناسیون
گرمترین
وسعتی
عقیل
##علیخان
بعضیها
##ingen
توصیههای
الفها
ظرفیتی
##بولت
۵۲۴
۵۸۲
مینامید
##over
۱۷۹۲
soft
الیاژها
لوتک
بارزانی
برمیش
لاهیجی
میشناخت
شبانکاره
مورتال
الشباب
کونیو
هلاکو
رويینگ
kommun
علايمی
خبی
ختل
عابر
قاری
۸۱۳
##وسترون
استرداد
سالنامه
منجم
المهدی
دیانت
ارتی
##اکوف
انجاست
کوبیده
زبانزد
گردشی
سبلان
مارهای
فروتن
البومها
##سوالد
تیرگی
inf
##usen
ماندنی
دمکراسی
گورکی
کومو
زنجیری
۴۵۴
۳۹۷
۴۳۴
##مارند
مشارکتکنندگان
کنسرتها
زرهپوش
نايومی
پلاسمای
گدازه
افلاطونی
لقمه
پیشتازان
کژدم
شمیرانات
##قرمزی
چکیده
بنشیند
چاووش
اکسپلورر
وبلاگن
ng
nag
بیدی
بمدت
دیتا
سورت
چور
##رگی
##حانه
##ایون
ازن
راول
##استاتیک
تاش
اسلاو
کرایه
##خشک
##اپذیر
کلور
چندلر
شاهت
قطارهای
میزانی
##صیان
رقبا
۲۲۰۰
##ions
پژوهشهایی
۴۰خانوار
داویت
جعف
تالارهای
متوازن
ولایتهای
بیداد
ناگوار
۴۳۶
حیاتش
چرخههای
اسپرانت
پذیرفتهاند
گرگها
مایکروویو
الودگیهای
مکملهای
لامب
فاضلی
ساعاتی
کایزر
record
november
نکاح
گناوه
متخاصم
400
jose
جینگ
لهر
یلو
##بنه
##ذن
##اییل
برمب
انوری
##فتهاست
##ترها
سرجو
کارنی
معضلات
ارنو
قرارگرفتن
دستمایه
توسکا
انتاگ
جهل
۱۸۱۱
راههایی
محمدصادق
اسپم
رودر
تورمی
فقید
۲۳۰۰
دکترایش
سربند
بلندگو
##ids
خلط
شهرداریها
زردی
۴۵۳
بخود
خمش
قاين
نمازخانه
تماشاچیان
بزرگراههای
سپهری
گلدمن
بخوبی
ایديال
فداکاری
زايده
ساقههای
نجیبزاده
تایتانیک
دایناسورها
جمادیالاول
##stein
گرویدند
بیفز
نمیگذارد
حامله
ذکا
زالت
نيون
کتو
##سابی
##رتی
##نوری
درانی
میردام
##شتههای
##اسرايیل
سریر
یاور
سیو
علامتی
##نجیر
احسن
عبده
سوخ
حسگرها
شیخی
مستبد
##باوری
اهنگر
پاسدار
حلز
سیمانی
##اویز
ویلکیه
خلفا
مریلین
قبیلههای
##eme
اسکارلت
rep
۶۴۵
۴۹۵
۴۹۲
برنولی
کریماباد
اهدافی
شرطبندی
کراکوف
aircraft
برگرداندن
تنکابنی
کندهکاری
جراحات
پروانهای
منقرضشده
خلاصهای
انیمیشنهای
کووالانسی
نيوکلاسیک
ale
bit
kent
mu
خض
فایت
قصی
لانت
ووشو
##بکس
##پریشی
##ios
##zen
##شتند
امودریا
اوسی
الاف
خودسر
ارانی
دستنشان
مشایی
پریرا
بزرگمهر
چندضلعی
##onia
۱۲۶۰
یوک
خانهدار
الیو
مسلمانی
گرمایشی
##علیا
متواری
سیراف
۹۰۲
stand
##ection
توضیحاتی
۴۴۳
مکتبی
۵۲۱
۵۲۳
۴۹۳
##بابا
سیارهها
pres
نگارنده
پاشید
باکینگهام
اشنایدر
خارقالعاده
گرامیداشت
sand
ضده
فوند
قیا
مگاهرتز
وکلا
١٩
پدال
##ننده
##يف
درنظر
منوط
الاصل
الینا
خودت
معدل
نامور
مقبول
##بالد
انگلو
هیولای
گلین
تجمیع
اوران
دلال
شکایات
##ices
تابو
اسمش
اچایوی
بورگاس
گازويیل
نمیتوانم
هیدرات
لینکین
النور
میرویند
۶۱۷
وجهه
۷۱۵
تستوسترون
پارامونت
کرمها
بارتول
فداییان
تاندون
تشعشع
منچوری
مشاجره
حنجره
gal
ld
تودی
جارو
قلاع
مفتی
چاهی
کرافورد
##قو
##قاره
##قصد
##ریشن
##مانهای
میشمرد
تاکی
##اندرت
##زارو
میتوانم
ادرا
پیاس
اندورا
نسوز
ریگی
بلال
مصراع
شاهنشین
قلمی
ایتالیای
کانا
جواه
ابتکاری
تورج
توسعهدهنده
بهترینهای
برجک
##وسیت
اپولون
اشتقاق
##ides
والنتین
##eter
گاهشمار
قیمتگذاری
##ages
هیدرولیز
نیوبر
کودکانه
۴۷۲
۶۴۱
۴۹۶
برنار
۶۲۷
۷۲۷
لیتون
trz
ذهنیت
دیلمیان
انیون
فرشاد
بطول
لنزهای
ناکامورا
##حیدری
بیخبر
تظاهراتی
دربرمیگیرد
همپیمان
59
ly
zh
سکا
لجن
هابر
ودی
##دف
##دانی
##fi
ازبورن
##اساکی
الدو
ایزی
ویسکی
مشاه
ترند
کوثری
بلات
بلایای
شهلا
میانک
##پیوس
مماس
میناس
کیوی
سینوسی
مدیرمس
حکومتها
ایلین
مولن
کدخدا
اتشدان
محدودکننده
##شیرین
سایتو
میکنی
۴۸۱
۳۹خانوار
۴۶۳
۵۴۹
۵۳۳
۱۸۳۴
کلاهقرمزی
گودرز
هالیوودی
ایزدبانو
بومشناسی
head
نيز
ببینیم
رسولالله
پارتیزان
جاوااسکریپت
چشمانش
دلفینها
##ضروری
جاکوب
نقیض
ساتراپی
میاوریم
کشفیات
فرغانه
bir
dm
جره
سستی
عفت
فاخر
هیتی
گامی
##فههای
درنهایت
##ودون
میگر
##شتره
برایم
اراد
مقاد
اعیاد
رویاها
##شکاری
خطاها
اورلاندو
خواهش
ولتا
معروفند
اسکادران
##une
ویلکا
درواقع
۴۲۲
۴۷۴
دوربینها
مردادماه
پیشرفتهترین
اموختگان
اندیشمند
تیپهای
نياندرت
عامهپسند
لوموند
فرضیات
##یلتونی
بعثت
طریقی
ساینس
mrna
عبدالمطلب
کمکهزینه
squ
sign
اریت
بجستان
حلو
زبرد
صفه
صابری
قویا
یث
۹۱۰
##پینگ
##zh
##دهزار
روپ
مدع
ابدار
##ونیو
اهی
اتیلا
پایانههای
کلای
ملویل
روداب
form
تفویض
##بدادی
کاتو
سنتها
زیستبوم
##ival
ژانرهای
اربابی
واکه
سایهها
اندیشیدن
جسارت
چگنی
۱۲۷۵
ترجیحات
برهه
طرفدارانش
##کانیکی
واترپلو
بفرستند
##وسوکه
درویشی
بالادست
ناکارامد
البلدان
گارفیلد
lond
خوری
غرفه
قاق
ماله
##يیه
##ск
##ارمی
ازبین
برایند
کارسون
##اشترا
دیابتی
اراست
ارایی
دوگ
ادمرب
بدبین
##منیا
حدفاصل
خطابه
ملانی
۱۵۰۰۰
جوکار
##ساء
عبدالغ
محمده
حالیست
اشتها
اتشگاه
فشارها
۵۰۸
ازادیخواه
نابال
وینسلت
مریل
ابراهیماباد
کاخها
بخورند
۶۵۴
خردادماه
۴۹۴
ايور
۶۱۴
۱۲۹۱
progr
ایندیان
##نوشتههای
میرسیدند
کاوال
##ensis
بنزینی
ناهموار
ملودیک
general
ایبیسی
اسمکداون
مشیرالدوله
سرطانهای
october
میسپارد
دغدغههای
وويلتا
بورژوازی
lan
##گیش
##چهره
##mb
##امامی
انزو
شدهباشد
الونسو
سرچ
مسینا
ارژن
##وتان
پیشکوه
پیشگیرانه
##اصلی
مربعات
قطبالدین
همینجا
##ونتس
کوهسار
تکفیر
##سمیت
##اشیان
مطالعهای
##ret
مونک
الفونسو
رابرتسون
۵۵۹
۵۳۴
۶۸۳
دندانپزشک
مذاکراتی
۹۴۰
امپایر
۱۷۹۶
گوشهگیر
کاراکاس
اینچيون
ابتلاء
معصومی
ریختند
##aceae
ترجمهای
مینوشتند
ارتعاشات
نگذاشت
شامپان
غیاثالدین
شهرتیافته
اوپنبیاسدی
پرکاربردترین
اغاجاری
##وپلاسمی
هیدروکسیل
hall
pen
اچی
دها
زوی
یورت
##بح
##باک
##ole
##ضد
##انج
میدر
استقر
اوجی
الاخ
موثق
نیستی
متذکر
دیات
سیانان
نووه
ابلی
زیرکوه
مانو
ترکزبان
##ines
##عتری
گیلی
خرقان
خلخالی
گورانی
گنابادی
چارلتون
مدارج
فرمولهای
نفوذپذیری
alg
arg
چاهها
۴۶۷
صلیبیها
##ific
۱۸۲۷
قالیهای
هیپوفیز
وهله
استعفاء
مهرهداران
حبشه
اشرفی
تشعش
نیواور
رامیان
مى
ننه
یوه
##گوم
##جال
##خای
میتاب
باشت
##فتو
##رکار
توگو
المی
##تیها
دیسکا
ویولا
اشکن
##وبال
عمدا
اغداش
نقشش
راهبری
##گوشت
غیرضروری
افزاری
بیشک
ولنتاین
پوشان
دامها
۵۰۳
والم
۶۰۹
نامزدش
۶۴۴
۴۹۹
شهریورماه
۵۶۵
بتدریج
۶۳۴
نودمین
سقفهای
leg
لسلی
۱۷۹۰
##لاطم
نانوایی
اتروپ
بیابانهای
اعلای
قرصهای
لطفالله
میمونها
برامدند
زحمات
جاودانگی
یلدا
پنگوي
کیسههای
برازجان
هیجدهم
زیرشاخه
بمیرد
ارابهران
باربادوس
استاجلو
bet
mv
دهر
لله
ولا
منقب
##مانس
اسنای
##دیلی
نوزادی
مرغان
مقار
حماه
##سبب
کامبیز
تخمهای
چینش
کورتیکو
فرارود
ناپولی
کروگر
عروضی
اندرانیک
سارو
۵۴۷
ایوانکی
تانکها
میافتاد
prof
کاردیف
box
اوپوله
هوافضای
مجرمانه
کاتولیکها
همتراز
همارزی
مقادیری
low
wa
اکاسی
جاف
##گش
##88
##ورسکی
برشا
##ابلیو
یکسره
##استری
همیاری
##یدانی
میشوید
بیار
ادرین
مانندی
ریسه
##ايي
گلادی
انتخابهای
مککین
کییف
گیوه
##وفون
مایور
##iter
سامانهای
سکینه
ارموی
##گارو
بیتا
سمتی
##ivod
دیراک
۴۳خانوار
۵۵۶
مرغاب
۴۹۷
۹۷۰
عشیره
نامیدهاست
فایرف
کاندیداتوری
نايینی
ویتامینهای
اسپیس
رحمتاباد
company
الخاندرو
نمیدانستند
اسپورتینگ
پازل
ولوو
معیشت
ناامنی
لادیز
هرادتس
خاچیکیان
schedul
سیراليون
ach
page
سابر
ناکس
ژدار
##حلی
درجا
استبدادی
##یرنگ
##ازگی
##اقان
##نگک
جمی
سیوی
بیی
نمد
دهانههای
##اکشن
پیشخدمت
اقامتی
##چهار
##پرور
چهارط
اورس
##lah
کلیهها
سنگان
##ald
کودتایی
بنیاسرايیل
نوشتهشده
کوتایک
تیول
ساموا
مادرم
##ika
##پلن
ویلفرد
گورا
زاوه
چپگرا
##فروشان
مسافرتی
##ump
خطیبی
فوگ
۷۵۷
۵۶۸
دانشگاهیان
پردازشگر
اهداء
شیمس
برونيی
لشکرکشیهای
زعفر
تیغههای
لنفوم
voivod
دربرداشت
##eship
قدیسان
ساترن
نواورانه
برمبنای
57
best
جویان
حیره
شوار
صلب
وکار
پگ
گهر
##سراها
##شف
##46
استیر
باع
امول
نیه
متدهای
جماع
دوهزار
مقید
نظاره
کمالی
بلای
##پیو
تعرفه
##بردن
##lation
غیراخلاقی
روششناسی
##گزیند
نورالله
میگویم
چینهای
کنترلهای
اسمبلی
سختگیرانه
##ریشه
نصاب
حاصلضرب
اصلان
سمنگان
سربازانش
تابعهای
معتزله
بغلان
مشارکتهای
۴۶۲
۵۷۲
۴۹۸
گرانتر
۶۳۹
مولیبدن
القران
کجاست
هربار
کلارینت
engine
گنبدهای
مادلونگ
زمزم
پاسیفیک
مساعدت
دایرکتوری
ممیزی
پنتاگون
pt
دکن
فیم
وسته
ژيود
##خاک
برسیم
بروسیا
##یلان
سروی
کنان
مقبولیت
##وهیده
پیکو
هستیشناسی
نظرهای
ولیعهدی
افزودهاست
۱۷۵۰
اموزگاران
صدایش
کریشنا
فرزندشان
حالتها
بخشیدهاست
ناگی
گیربکس
خلقی
گورهای
جذبی
مارتن
دیوانگی
رادیوگرافی
ماکسیمی
##aker
andre
۵۴۶
معلولین
زرقان
هتلها
نعیم
۷۱۴
مگاپی
نماییم
تماشاچی
مومنان
پلیمراز
میپوشند
مژده
کاندیداهای
سیلوستر
mass
nt
water
جوندگان
کراک
##رع
##کتی
##نتا
##پوینت
##tain
##55
برب
##فتامین
روسل
متس
جمشیدی
باشندگان
##افیل
روزگاران
##رهار
##کوکی
کندتر
ریالی
##کانلو
هیسپ
شیيی
گلکسی
قبور
ملین
##ایرن
##isp
جهتدار
عبارتهای
مجموعههایی
اسکورت
دهدشت
نبشته
inv
##ache
اریکا
۴۸۹
تيوریک
۷۳۱
کازابلانکا
۹۴۵
فیروزهای
##اموزند
law
لوبلین
اترک
فیزیکدانان
بنتلی
استیناف
نمیشدند
میلههای
سسنا
مکنزی
نتیجتا
سرگشاده
ml
mess
بپذیرند
جاسم
حقه
رقه
لیدن
کلاف
##کفل
##ex
##yan
دراور
بهانهای
بهايیت
##ازدگی
فرما
ایکو
متمدن
مسکون
کارتل
##نیع
بوژ
بوقل
اعوج
کلفت
بنابه
سطل
ریکو
سنایی
سنبله
ماهگی
غیرواقع
جوابی
دریچههای
##پهن
گونگ
کاکی
سرداری
co2
##tta
پولاک
حریری
##اتورها
##پورتی
برداشتهای
real
اسپرس
۹۷۸
۷۱۸
داوودی
ارگاسم
یکپارچهسازی
برگزیدگان
مزدور
رباتها
چامسکی
برمیخیزد
ملزومات
منقبض
voivodeship
bod
dat
file
gir
home
pu
هوهانس
پاویا
چمدان
##کنگ
##وض
##ایص
بابان
یکسو
سالهایی
میشمارد
خودکش
خودتان
ارشی
ابباز
بینام
پایبندی
اولگا
##کسان
تلوی
##کوال
بلین
جهانگردان
دولتشاه
کانوی
ایجادکننده
مککل
سیندر
fort
جلگ
نمیبرد
دیدهبانی
والرین
داغی
نتها
حاصلخیزی
بدینسان
۷۰۵
پورحیدری
جورجی
راکفلر
کاشفی
مستندساز
۵۷۹
۵۱۴
۵۴۲
مضاف
کنسولی
صادقانه
##چوبه
مگابایت
sour
بردارهای
لیزرهای
واترلو
کافمن
ویدیویی
لوسیفر
مورتون
ندادهاست
پمپاژ
اشنایان
تبهکار
جاپلق
منتشره
خرافات
کلمبیایی
سارایوو
68
call
بولت
تدی
عینا
لوا
واره
کازی
##ues
##اشتات
##ونیکس
دستجرد
##اکش
##ازیان
##متانه
##aro
خانواد
یادبودی
سیاستی
گیران
درختها
۴۶۸
136
۵۶۷
۵۸۶
رژیمهای
۹۹۰
مخلوق
واکسیناسیون
دوبیتی
هماهنگکننده
پیچیدگیهای
لوسمی
تماشاخانه
اسکناسهای
پیشکسوتان
اپارتمانی
بدرفتاری
صاعقه
اعوجاج
رخش
##صالح
امراض
اوبی
الاص
برایت
تايید
اسلیمی
##کنت
ارشق
نوشین
مردهاست
کلاید
##orge
میدانها
ماکايو
مسابقههای
##ito
منظمی
نمییابد
حسنزاده
خوشایند
درامدهاند
نمیشن
۶۰۳
۴۴۹
تارانت
۵۶۱
۶۱۳
۱۸۰۲
2001
islam
۷۳۲
دژهای
۱۷۹۳
لوداب
درخشانترین
اولویتهای
پربار
غضب
خداحافظ
انزال
تراشههای
هنجارهای
##velop
بشناسد
تلاوت
que
نگردد
پوران
##يونی
##گاو
##چکا
##حور
استریم
باارزش
موتیف
ارادت
کراتین
عموز
شمرد
جهانشاه
شهودی
لیچ
##قلم
ولیکی
##iness
اکتی
لوسیا
پلور
مغازههای
طبیعتی
مراوه
دخترها
عبدالج
##وینو
سختگیر
نرود
حوثی
ماهیگیر
فریبا
سکونتگاههای
سایههای
۴۷۳
۶۵۷
خوابیدن
بدهیم
نیکلا
۶۷۲
فارغالتحصیلان
۷۶۷
ریشارد
فاطمیان
۷۱۶
۱۸۲۳
abc
نسبتی
بوسنیایی
علاءالدوله
گربهماهی
متضمن
مارچلو
قرعهکشی
طایفهای
بهروزرسانی
اسپانسر
کربوکسیلیک
dyn
fac
بپ
ذراتی
رادر
زات
زعم
عقیم
لکس
لودی
وفق
گاگا
##نری
##جاب
##min
##اراک
میره
استواری
بادیه
برل
روزرسانی
##مانان
تاکر
گرگی
سیحون
بیزار
بیخوابی
دهن
##اکف
ترمه
##شکلی
فعالترین
سنتا
ملغی
ممالیک
هندریکس
ابتهاج
نمیخورد
۲۶۰۰
غذاخوری
جمعبندی
امورخارجه
خردل
مونتی
جورجو
مسافرین
نهادهاند
کاباره
کابالا
هندیجان
۴۹۱
۵۹۱
هولشتاین
ریاضت
یهودیه
بسطامی
مگسگیر
بیندازند
جغرافیايی
پابرجاست
ایسلندی
کارفرمایان
هگمتانه
گنجشکسانان
ax
cell
hom
your
بپیوندند
جوق
ساقی
##kt
##حههای
##ارای
بهجت
##الگو
##یمار
ایور
ارزن
گرش
ابگیری
اشکاری
بینگ
##دارای
##ربیگی
تقوایی
معمر
جانبازان
##سازیم
فیبرو
برنامهریز
یواخیم
فرمانهای
##eder
ولتر
مبادا
##ites
مطالبه
تفحص
عبدالناصر
عبدالسلام
پولشویی
دمیاط
۶۰۴
هلموت
هاروتی
فریبرز
پیمود
قالبها
##ters
۶۳۵
۵۹۵
۸۹۰
وسیعتر
هیپنوتی
تولستوی
carol
صیقل
مخروبه
مزدوج
اوانگارد
فروراسته
رکنالدین
بیحسی
میجنگیدند
اسمکدان
فلاورجان
تومیتوز
b2
had
mri
tro
ناع
یین
##کاست
##يیت
##پام
بهاین
##اریم
همانی
##اسلم
##ومور
توفیقی
معبر
بیورن
اشوت
کنتس
ترفیع
اتری
تنبک
بدیل
ارتز
هیس
نقشهایی
##پرستانه
مموری
##aria
نیستیم
دانبرو
اسکول
امامقلی
پاسخگوی
##گینز
دشتها
دهندههای
درگیریهایی
۴۲خانوار
۴۶۴
۵۳۱
حفرهها
صربها
تاتارها
حوضههای
cry
خفگی
اقدس
ذیح
لنفوسیتهای
تفرجگاه
بیرحمانه
حتمی
نیوپورت
nba
تاتا
خمپ
داز
##لایت
##وامی
##گالی
##صح
##xy
##ستید
بهجا
میمه
بادر
باارز
##رکزی
العم
جمیل
قرقا
ابومن
ابدانان
پرزیدنت
بینالود
بازشناسی
اقاسی
بنویسند
##اگوا
مینای
جنوبشرقی
ولادی
گوج
مغربی
##وکوس
کاهو
تیوب
بناهایی
مالایی
اکتین
##ips
ناگانو
کدخد
گوشواره
ent
حسابدار
##پاول
۴۵خانوار
مقالهنویس
اختلالهای
گنجوی
##aka
طرزی
۶۳۶
منزلش
##گفتار
ساکسون
اشتراکگذاری
کاوازاکی
سحرگاه
##خوردگی
طعنه
تحرکات
پرطرفدارترین
لجستیک
##اپرستی
تنگاتنگی
گوتنبرگ
little
alex
bio
penn
بولد
لانا
##وور
##bl
درش
##انیدن
روژه
اوستر
فرامین
ویزای
دوین
پرشمار
##نجد
خوج
منتج
بلف
مصنو
##نهوف
##قلوب
اخن
اصلیاش
اورن
##ويوکا
شکستی
##یریک
جواهری
یوکو
کوهمره
موسمی
کاهشی
چشمپوشی
تخار
استرن
ابرنگ
جوانا
انجمنها
خوشش
۵۰۷
##owa
۶۰۸
پیامک
خیلیها
ونسا
معمولان
کولر
۴۶۹
۵۷۸
رامان
العالم
گلیسر
۶۸۵
الهلال
شیبدار
برهمن
لطمه
منقوش
ندادن
مداخلات
ریورساید
صومعهسرا
مقصدهای
لیوینگ
حصیر
گربههای
spring
دراکولا
##چراغ
خداناب
جیش
زاگ
نل
نینو
هتر
کاتر
کعب
کونو
##ياس
##bn
میاموزد
باطن
##ادزه
یکطرفه
بودجهای
اوکان
براید
خودنمایی
##وتپ
پرانتز
دادیم
بارانهای
##پیوست
۱۲۰۰۰
۱۲۱۹
ملاز
ایجرود
هنرجویان
دورانها
##تریک
ابتلای
گوگوش
رهی
تورینو
خودروهایی
ویلز
قیمومت
بادب
مقدسات
مایکلز
۵۴۴
۵۲۷
تانکر
شکافی
برونش
فالکن
اسطورهها
نامزدان
تلسکوپهای
وزارتخانههای
##روهه
هوادارانش
چهاردولی
microsoft
محوطههای
قورباغههای
سورینام
nc
بطرف
تشر
جید
جدار
دکم
گابن
۹۰۰۰
##off
##عتم
##امدهای
براده
یکا
مواج
##راپ
کرتیس
دوربرد
بازفت
رسايل
علیاف
اولینبار
فارادی
دنس
##ستیز
حضار
##ati
اسفار
نجاری
سابقهای
اشکفت
متوسطی
۷۰۲
##گرمسیری
پردازشی
۵۵۴
##aya
۴۶خانوار
۵۴۳
دالایی
هاوکینگ
##ift
thom
۷۱۷
مجوزهای
وصال
کاپیتانی
team
کاکلی
##بلیوای
مقتضی
ضدهوایی
ماکسیمیلیان
fact
kal
lt
tab
جگن
زاکس
سفتی
طهران
طاقی
نگو
ندهند
کفن
##کتیو
##يات
اسرا
نیشی
عمومیت
اتوزوم
جهشهای
جنسیس
اولاف
تنسر
اقلیتی
مترقی
بلت
مطر
مصوت
لیکرز
اخرت
میانهرو
مارو
فلکه
اختلافی
##زبین
##سونز
۲۷۰۰
پشتهای
ورزنه
پیمودن
فرارسیدن
ضرباهنگ
خلیجفارس
190
راسها
۵۱۹
دوچرخهسواران
پرستو
##گرافیک
بازمیگشت
space
سرورها
فرسخ
همدست
لوییز
درجههای
لودوی
هادسن
فرخنده
model
جزییات
درویشان
پیاچپی
اوستیای
٢٠١
دیالکتیک
central
مصنوعات
god
rt
رغ
رفق
سونیا
عجب
هفش
کینت
##بالیست
##گي
##ych
درر
درهها
الوین
الرژیک
سروری
سرجیو
##براز
گرگانی
مجال
توسکانی
کمانی
انگاشته
اندریا
سهماهه
##کوکو
زمینههایی
انجامشده
علیال
شیبک
##ones
ماریت
وقای
اموزه
قرنطینه
ازدواجش
تیرداد
متوکل
develop
زردشتی
بخرد
۵۵۳
تونلی
ماکیا
۴۶۱
۵۸۹
خسروانی
۵۹۷
۹۷۵
۱۲۹۲
##طبیعه
سندیکای
نیروگاهها
تپانچه
توریسم
بگذر
جسدش
پارتیان
بنگاهها
فشردن
رشیدالدین
فیضاباد
میگذرند
سالواتوره
ایافسی
سکولاریسم
نیوبرانزویک
لل
لوار
چست
چاوز
کدها
##پیت
##شری
##عفان
##خزندگان
##غن
##اسیری
##ازپین
الاع
اسوده
محس
ارچی
##شمس
کمعمق
پایک
تنظیمی
##کرات
بدینگ
گرفتم
بالاب
##فهیم
فارسان
اورا
پیرزن
عرش
جملهاند
سریا
مککارتی
اخته
اروپاست
سیاحت
برادرز
##سکایا
##انگشتی
اچمی
هواگردهای
نمونهبرداری
کاربردهایی
حواصیل
ویلج
ایتالیاییها
طلايی
کاپی
##ects
اسماعیلاباد
۵۰۰۰۰
۵۱۶
##aki
فدرالی
۷۶۲
موریکونه
چایکوفسکی
علامتهای
خزینه
##نمایش
ساکرام
شادمهر
دیاگرام
۱۷۸۰
وهوای
مینیاتوری
ریختشناسی
یورکشر
مسجدال
نوکليیک
fair
ورشکسته
ohio
نظریهپردازان
ننگرهار
اپیدمی
صلوات
شغلهای
پیشدرامد
دونتسک
مغالطه
london
equ
h2o
lg
pv
rio
sav
uv
جوری
خفر
داسو
طوم
نشتی
بهدر
میپیم
براب
برنگ
رابه
##هايی
##ومیش
مسقط
کارخانهای
##یشاپور
دويل
##برق
##وتلی
کشد
بیوم
دارايی
انگوت
رویههای
##ینیانو
بارزی
سوگیری
##کانا
حسرت
راهزنان
مخزنی
##ولیو
نمایشها
طبعا
اسلامشهر
برجست
##بورک
##oli
فراگرفته
کربوک
کربلای
سوداور
بادغی
احساساتی
تازهاباد
۵۵۷
۶۳۷
بگفته
گردنبند
شباهتهایی
بدیعال
مشروطهخواهان
کالاهایی
کاکایی
پتک
##گزاران
1390
معاهدههای
گوهرشاد
معرفتشناسی
صریحا
مفرط
مغازهها
review
سرنخ
یخچالی
public
مستضعفان
scheduled
بوقلمون
bag
batt
ober
son
som
فابری
نجد
چیدن
##face
استیتس
باوری
##ابار
##انیاهو
نامت
پسرب
##ناج
بالههای
اغوا
لیختن
شیوخ
تعبیری
کانو
فرمانداران
انسانهایی
##وزیان
##انووا
گیاهشناس
والس
تاکاشی
ادعاها
دانشمندانی
رونوشت
اصولگرا
افسوس
پریدن
اوجگیری
۵۸۷
گرافیتی
تفسیرهای
چرخدنده
۶۳۸
۶۳۳
کامپوز
##ova
سوپرجام
ماجراهایی
level
کاپیتول
پردازندهها
frank
شرکا
کراسن
شهابسنگ
##aux
برخاستن
افریننده
societ
فاحش
حریص
انکشاف
توحیدی
washington
ختلان
bh
حصاری
خوم
ذکری
ضدان
##یون
##لج
##pos
##غازی
##زیلا
##اقصی
گرالت
سیکور
ابنشین
پرای
پردهای
پرسرعت
میلو
پایگاهی
تاریخدانان
کلینت
##کتاپ
بارنت
نسوان
بلن
شاهدی
هولی
جهانبینی
پیرمردی
اساسان
پلزن
نورفک
کاهنان
عبدالص
هدفگیری
شاخصی
خودروساز
ماما
خلدون
طولانیمدت
##ثیلی
کارلایل
ابانماه
کوبهای
۵۶۳
process
هشتادمین
همدستی
چلبی
ژاکوب
روتردام
پشیمانی
میسوز
مسوولان
اشراق
اسطورهشناسی
1000
ارگانیسمهای
میکشیدند
مجرمان
نابینایان
پپتید
college
استرپتوکوک
لیتیوم
ابیلای
led
nas
خزه
دایه
شچ
وتو
پریت
ژار
کودی
##len
##99
##ریچ
##زیدی
اوزن
موکر
ایاتی
##فرا
##ادیه
##وریوس
ادور
اعاده
جنگاوری
ولیکا
اسپارک
صدری
هنرپیشگی
دنبالههای
جدل
نمونهگیری
فضانوردی
پولدار
جرق
مدارات
شبهقاره
conc
رابرتز
پریست
ملکاباد
چرخها
برناردو
۶۲۳
اعتبارسنجی
همکارش
اعطاء
پیکرش
سازمانیافته
تنشها
لالهزار
roy
مغایرت
springs
اوغلو
گرویدن
متافیزیکی
technology
مینوازد
ویسکوزیته
97
dun
nan
nav
sen
بلس
بوتو
جسته
خمیس
صان
فود
فورک
مپ
مامی
وارک
۸۱۲
##31
میام
میگرن
##امینی
امیره
اواتار
منا
بیسک
بیپایان
نوپا
ابکاری
##کیها
مروی
میبایستی
پرن
اعض
##لولیت
جنگهایی
دادهبود
تقصیر
دولومیت
جزینک
جهاناباد
##وقفه
سنگری
پلازا
نورماندی
##itude
نرماندی
سربار
شعرهایش
ویلر
مکانیزه
نتانیاهو
مدارگرد
ارزهای
کیلوگرمی
ماکار
کوبریک
رامش
۵۸۴
۶۸۴
۷۲۵
۶۹۸
۷۹۲
رنجبر
سوسکهای
دیمون
متقابلا
رگها
عالمی
دوشس
سیستمیک
meth
قضایای
پلینزی
اقامحمدخان
##worth
دریاسالار
europe
ادمربایی
esc
get
mah
nad
xml
اگل
سوش
شادر
قنا
هایش
پریس
##مرات
##هو
##جذب
##ui
##قری
##ندن
استوکس
برشت
برزین
##ادون
همزاد
##ترهای
محفظ
سرسب
##اشویلی
##اندان
##بیو
داربست
اته
چهارت
ریزد
دادهشده
علیت
مخوف
قلل
قدمی
کامب
##الهی
امریکاییان
##خواند
شوکه
ازدواجهای
ارزويیه
واسطهای
شارجه
فلزکاری
۵۲۶
۳۰۰۰۰
۹۶۴
خواندنی
میوهخوار
۸۷۵
گرهارد
گرگور
قصاید
شباهتی
کرافت
1397
فخرالدوله
سیفلیس
##قایقی
پژواک
زابلی
دوزیستان
بلشویک
اختتامیه
نیواورليان
mob
جویا
داپ
شیند
ماو
نکتهای
ونس
۷۱۹
##يق
##چله
##چگان
##ek
##عة
##حزبی
##ندرا
##اریوس
اوینی
##نگاه
موص
ایبار
نیقیه
نیيا
گرهای
کرانی
ساختهای
پرشی
جنریشن
مهریه
اقایی
##کتا
تمثیلی
جایگذاری
تباهی
##پروم
خطاط
اوربان
ولیالله
گوک
المپ
شیمیزو
اسکویی
پاسپورت
چاپهای
##بلر
سردترین
۵۰۶
متعالی
داونی
بیتبورگ
ساسکس
conn
read
هیلتون
۶۴۸
بدهید
کاسپ
چرخاندن
۷۷۶
خشونتهای
##ification
پروژههایی
عمیقترین
نشریههای
طنزامیز
قلیچ
اسکنر
درمیاورند
کورتنی
مرجعی
شوماخر
##iya
پرورشی
##ways
برافتاب
شیزويوکا
نامساعد
هفشجان
ساکرامنتو
بدیعالزمان
bm
its
pur
rel
جینا
خوسه
چپاول
##رل
##واد
##شلو
درف
درسا
میپذیرفت
##یرک
سالک
دولی
بیق
##اکردن
انتورپ
بارفروش
ریانا
لیسپ
##ايم
ثبتنشده
دیدبان
گیوم
##isch
زنون
مراکشی
احمدزاده
اپول
ترانهسرایی
لیگاند
تسویه
مشترکین
اصطبل
تالس
رشتخوار
دوچرخ
خاندانی
اکسون
۷۰۱
بلوچها
کاپا
سانتاندر
فرمولبندی
۴۵۰۰
stat
موافقان
۴۴خانوار
۵۷۶
راموس
۵۴۱
۶۶۷
نیلز
هاوکر
union
لنون
بسترهای
خبرگزاریها
الاتحاد
دیپلماتهای
##163
##يیدون
regional
مادربزرگش
اوارگان
##قرمز
خیرهکننده
کریستنسن
سراسیاب
ذیحجه
han
pon
pad
جده
حلوا
دکارتی
زواره
شیت
عصیان
هپت
۷۱۳
##نفری
##پولی
##earch
##wick
##خاله
##غو
##ji
میسن
برزن
انیتا
اینز
##روالد
موچ
نیاورده
سرر
کارزین
سیخ
سیجی
ابقا
باشه
مقلد
زیرنویس
نشویل
اقوامی
##وايد
بارسا
بالکن
رسانای
شهیدان
##erv
چهارلنگ
تجویدی
فارل
میکردیم
کانالی
مدیرعاملی
کامبت
شمارهگذاری
رنگد
افرادش
##قرنین
ایستوود
دینو
مارسلو
نرفته
ماندگی
مقدور
سنجد
اذرشهر
گیتاشناسی
۵۷۷
اوازخوانی
۵۸۳
۶۷۱
نگرشی
حافظههای
مگنت
شارلمانی
چربیهای
نسبیتی
edition
##mann
بطنی
لحظاتی
متابولی
مزاحمت
دوبرابر
بیگلربیگی
گریگوریان
وقایعی
58
att
ذن
صوف
هلاک
پیره
پتو
یای
##پسی
##شیا
##ny
میپرد
##تراشی
فرورتی
##اشیما
کارازمایی
معجم
معلولیت
دیاب
دیکنز
کشیشی
پرولت
##ورتاش
پیوتر
اجارود
بسیجی
صورتش
بنوی
کوجی
##کسلی
اشارهگر
رسال
رسالههای
شهسوار
خطایی
۱۲۲۰
##ابیگی
کیوب
هنگفتی
نوعا
اقتصادهای
حلبی
مالاک
##گنس
ازدست
اشتفان
دینا
۵۰خانوار
اینترتینمنت
ردپای
##قباد
پانل
زردشت
مالکین
ذهنش
انتظاری
۴۷خانوار
خاتمال
بیاح
معلولان
##abad
تانگو
۷۳۶
پورتس
۷۸۶
گاوکان
بزاق
ممنوعال
جویدن
دیسکها
ماتریسهای
مجتمعهای
مانیل
باقراباد
##ysis
کپکام
وازا
پوزيیدون
پیانوی
گوانگژو
چروکی
رنگینکمان
اسنیپ
پسرعموی
ia
nord
شفر
طوط
لست
کچل
گوریو
##لستون
##هه
##زانی
##dle
##bour
باخته
##یرهای
##روست
روکا
##تیپی
سرشاخ
مسک
ویگن
دوانی
بیوقفه
بوکو
مرکل
کمابی
روستاهایی
باربد
ورس
شیان
مخملی
همهگیر
۱۶۵۰
دریغ
##زندگین
المسلمین
##سالا
بیانکه
##البروج
سخاوت
طبقهای
تریستان
سیراب
کاپان
states
##anda
۴۸۲
متمول
زروان
غذاهایی
قومیتی
۶۷۸
زهد
لانک
هندويیسم
##عالبی
میسوری
school
سمرقندی
فوکوس
gener
ترکمانچای
اسپانیای
انتیبیوتیکها
ظهیرالدوله
##طبقه
رفلکس
ide
اودر
بوید
دقایقی
فلاحی
لیش
لوي
نانی
هاز
ینگ
##بث
ازون
استلا
##اتسی
همتاباد
کارلی
معار
دوده
دستبرد
بخشبندی
##شمالی
پاییند
کندال
برگز
دلش
سفالین
ولینگتون
گوام
شروین
تابه
بوروندی
سقاخانه
##بینو
سورنا
ارزانی
پوکی
ویلیامسون
پردازد
شناورهای
اخترشناس
هورنی
۵۱۷
##akh
##پارس
۷۴۵
قارههای
کراولی
دبیان
تندیسهای
الزهرا
چشماندازی
1999
کلارنس
خشایار
jean
راشدین
فايق
aspx
زیتونی
نمیماند
ساندرلند
میطلبد
cir
hor
ns
اگیل
بزی
دونا
صمدی
ژلات
##ناب
##بام
##lu
درنده
##ونیتسه
##اریخی
سرشن
نامساوی
دیسکو
دستنوشته
بینوایان
بدبختی
##رموت
تقریر
هوور
مردمسالاری
کلیف
اسلاید
ماکی
##سلاند
کاونتری
اروپايی
اجراء
دامبل
بحبو
درختچهای
##una
خوشخیم
امورف
دستیاران
لاگو
پاناسونیک
##ema
align
اهدایی
کاستلو
اقامتش
۷۴۳
۷۲۸
کنفرانسی
الومینا
معیارها
کهکشانهای
دیاکو
##گروهی
مندل
دشوارتر
ساتیا
پلهها
هانسن
دهلیزی
گرامافون
پامیر
انزوای
زوجی
فاینال
سرگرمکننده
هنجار
پروپاگ
ناجا
الساندریا
احمقانه
مخرج
management
غیرواقعی
بحبوحه
sul
بشی
جرد
صص
صبور
فجی
لندر
##اژه
##ken
##rd
##ule
##42
بادم
بروش
##اتز
##یدیم
روبل
روپرت
فرقی
موطن
قرابت
##وبان
پیگ
##لوکین
بلقیس
##ودیان
##شانس
همراهش
مکماه
فروشان
افتر
نورگیر
تعدادشان
تخریبی
هواپیماسازی
جوانب
امرالله
پوکر
شمارنده
لیندن
قراردادش
##بورگینی
۵۷۳
۵۱۳
۶۶۸
جوشان
بیهمت
پارساباد
برانگیختن
سوپرمارک
عسکر
لقبی
##ski
research
پویای
ریباند
کستیل
##نفوذ
rfc
هیستامین
یوشیج
دانتون
دمیتری
هیپنوتیزم
بدینگونه
دامبلدور
66
jack
way
خوت
خاخام
لاون
۸۱۹
##تنه
##جنت
انوار
اینی
##ترکی
روسا
الث
##اشان
کارتری
ارشم
دوون
گرترود
##گیها
ابوج
پسندیده
مشغ
##ورتن
اعمار
بازوبند
بنان
کوپن
لیپی
##پرویز
اورليان
##لباخ
صدمین
طرفهای
مرتد
۲۱۰۰
##بلدون
مدلهایی
اپن
پاکدشت
inform
دسکتاپ
##زنبرگ
درمانگر
منصوره
##اتورهای
سلطاناباد
بازرسان
##عبدال
هنرمندانه
رحمی
سوزانا
میراژ
۵۳۷
۵۹۴
۹۲۵
کاغذهای
۱۷۹۱
اندونزیایی
حمیدیه
چلنجر
نژادها
لامبورگینی
چربیها
گرجیان
عزیزالله
صیادی
robert
استعمارگران
استریل
رباتهای
مناقشات
خنداب
نووگورود
افشاریه
مدیریة
history
فراشبند
طرهان
فراصوت
fda
how
صراح
پف
##lan
##ris
##pp
##ثقی
##كت
بههر
بروت
##یتن
همدم
##اسور
روتن
روابطی
الماسی
اسرایی
##برلی
ابود
انتالیا
علنا
نشا
نخودی
##سانت
پروفیل
تعل
ملح
برگن
##دنویسی
##صدایی
دلگان
اسپور
اسپیت
فیگور
##زدد
خصمانه
بیانسه
اتفاقا
##یترون
تدافعی
۶۰۱
##حلول
حکمتی
همانندسازی
کاخی
روسف
سوختگیری
گمارد
##ابریا
تارنمای
ابداعی
۷۶۸
۶۹۱
تنیده
تقدس
شیشهها
اونتر
اودسا
۱۷۸۱
چسبنده
مومنی
گذراندهاست
دیهگو
اپراتورهای
هتلی
##مینگتون
ملوانان
حاشیههای
america
فولیکول
پلوتارک
توطيهای
سیکورسکی
bat
بزمان
حرا
دونی
شاکی
صربی
عند
عارض
قازان
يه
##سامان
##گلیس
##زبرگ
##mar
##bro
##طف
##ایفی
##اتیر
##انیس
همجو
فرزین
توکان
خودک
معتم
ویور
کرز
مجانی
شمردن
اتزیو
افعی
##الته
بارنی
نظران
دولنی
نخستی
ملازم
برگههای
اورارت
دنت
دنریس
##یدهاند
##وبیان
همهگیری
حضرموت
یادگرفت
استرابادی
دخترک
سفیدرود
سفیدپوستان
##chi
شناسانه
جراید
گناهی
گستردهتری
بحثها
اراکی
کتنیس
زیبايی
عاشقی
phys
رامسس
##یدرمانی
پاتولوژی
مضار
۶۶۵
۶۷۳
۶۹۵
score
۱۷۸۳
maj
فرایبورگ
اینهمه
رزمارا
سینگل
دلفینهای
resp
فاشیستی
turk
انارشیسم
کارلسروهه
مبدلهای
سماوی
ud
اجود
ثعالبی
جولین
رشک
سویس
صاب
لنس
لاکی
مانش
پلام
کپه
##پشتی
##غیره
##حصار
دراج
اینا
##ونوس
##اسپور
##ترمال
بودو
متانول
گرز
##وسنت
اولتیم
بازههای
بازخور
##لويور
گردنی
لیفت
تبری
چهارمی
تولیدشده
ثبتشده
محمدامین
اکول
کانبرا
بیشاز
##ency
##قیقت
گیس
##iple
۲۸۰۰
##ider
سورههای
مقایسهای
پانکراس
تازهکند
اندرها
##ume
ناگفته
۶۵۹
135
رامشیر
سعیداباد
۵۹۶
انحنای
قارهها
هالیدی
هلندیها
عوارضی
ازبکها
نیکولز
میفرستاد
خلیلاباد
اتلانتیس
اوپک
لقمان
مايوری
بربرها
ابوهوای
اگنس
ببندد
استنشاق
فرورتیش
but
opt
pom
rand
vit
اونا
بویس
فاول
##لاد
##پانی
##چاپ
##ael
##دهها
##هاشم
##یتین
امای
اوصاف
موکل
##گراست
ایدهای
اسوش
کنست
زیرکونی
اعشاری
خولیو
##موسی
تلگرافی
شوره
##گریو
##اجا
سباستی
##lay
دنیرو
کلیشه
##یریان
مکمن
مینسک
گفتوگو
پارسه
##کردنی
اسکالر
کمیکهای
جدولی
عواید
امیرعباس
زیستن
نمایندهای
وزنهای
وینچی
##لحاظ
۷۰۴
دشتک
کتف
رباب
رهاسازی
مهارتها
بدانجا
##raw
درمورد
هاینکل
نصیحت
حیثیت
اسپارتا
یاختهای
زیرکونیا
طرقبه
الشیخ
martin
معجزات
98
cin
tm
بگونهای
زپلین
عاید
فوس
قبه
لزلی
وگا
کایت
کویی
گابل
##پولیس
##شیتسه
درگ
##الکتر
استدی
امایتی
همنوع
الون
بیزی
مقیاسی
##جهانی
پیشوایان
پیو
افام
کلکتور
بازافرینی
گروت
ملون
اورگان
اورامان
##بافت
##ويین
مارماهی
بیشاپ
پلن
##زبرو
قانونگذار
ایلان
گرماب
استادانه
##olution
چرای
##نتیو
ابنبات
عروج
فیلمنامهنویسی
##ander
ماکان
سرمق
۵۷۴
۶۲۹
۶۶۴
خمیری
خزعل
قصرقند
ولتاژهای
##وساوا
اسیابهای
سخنگو
کراسوس
علاقمند
برزخ
دوبلور
glob
میزیستهاست
persian
##8921
گمانهزنی
دکوراسیون
گونزالس
باپتیست
کرملین
81
light
شاندر
غصب
لینه
وبه
پاتا
##سفیلد
##سفلد
##رمانی
##کارت
##مش
##بايو
##rs
##سیلا
##ویدن
##یلین
خودزندگین
##کاور
کنعان
میبریم
نشستی
##ارتفاع
چنداهنگ
هیبت
هوابرد
جامو
##ink
شمالگان
سویفت
رهیافت
شوبرت
ارمنین
خونخواهی
stre
arab
سارگون
تصادفات
زرق
۶۲۴
۷۴۱
##ودرمانی
بوتههای
۶۹۴
##پتوس
۱۲۸۱
هاوکینز
وسطا
عطارد
مجسمهها
لیبرترین
اوریون
بیلیون
کیروش
مصریها
فلسطینیها
کیسهدار
زخمها
یاختهها
کامپوزیتهای
شاکتی
december
ادنوزین
ابوحنیفه
امیتاب
بادغیس
3d
gsm
raw
well
كتاب
لولو
یانو
##شوند
##شیمی
##جینگ
##get
باصری
##ولتس
میشیما
متصور
کارتی
##اندخت
دوایت
##اختار
نوکن
کرالا
##خشن
اثا
پرههای
مهناز
کلوز
کوو
باربی
تیمورتاش
مانا
برخو
ورون
هواخو
مردمک
مخچه
##ولیتیک
##اسیو
دیدگان
خرطوم
رهگذر
رابینز
نباتی
کاتدی
منصفه
طلبه
##شناسانه
توصیفات
ایزوله
۸۰۴
کیفیتی
۷۰۳
۹۰۷
ناتاشا
۶۵۳
شاهزادهنشین
مضح
ارکسترهای
قارص
اولیهای
۱۲۷۶
ازمایشگاهها
شطرنجباز
۱۶۰۳
ژاکلین
ساعدی
مودنا
جنایتکار
قمرهای
blue
کلوچه
اسپرینگفیلد
برامدن
ویمبلدون
village
ضربالمثل
هلیلان
اپادانا
مناجات
همجواری
hello
ايو
سمو
قاصد
##نوش
##پرم
##led
##ایمی
##یلاک
##وانس
توابعی
الوح
ویست
مدارا
ابلیس
داشتنی
روستاست
نفربر
##وبازی
دورا
##یهارا
کتابچه
بارب
میرسی
چندوجهی
زمینهایی
زمینداران
ریوز
مستثنی
فروکش
##ales
##چیانو
##ats
##کردی
ازادکار
نمیگرفت
قمیشی
کالسکه
مدلینگ
سبکها
اسماری
باغبان
۱۰۰۰۰۰
اینترلوکین
##يوتی
تریاس
پرتگاه
پرتوزا
chcl
اتاقور
عصار
تراکیه
academ
تونلهای
disc
لشکرهای
ریچاردز
۸۵۳
ابدیت
انگیزش
۸۲۵
هولناک
قشری
جوابهای
کیتون
انبارها
پتانسیلهای
اسنپ
جوزجان
برزنجیر
مکاتبه
ریبوزوم
فیلیپه
القاء
پرخاشگری
دیاموند
نمیکنم
ضرابخانه
نامتعارف
application
گزنفون
مطمينا
خبیث
دیسکاوری
bed
bank
eff
km
kir
let
rs
wo
زز
قت
قوطی
لکل
لنت
هیمن
۹۱۹
##رنو
##خاش
##hi
بهعهده
رواقی
روبیک
تاویل
##یاکی
ارال
##وتانس
ادمیر
پیشنمونه
مهتر
زیگور
##يیسی
میرزاده
نخهای
تبعه
باشگاهها
ملازمان
بعثی
سنگتراش
فلت
کیانیان
تهنشین
شیرویه
##ویته
##وفان
کرید
##مرده
قانونهای
تیام
مالرو
ویژن
بنابرین
علاوهبر
نااش
ورزشگاهی
ann
منطقة
شکارگاه
کنندهها
تجهیزاتی
۷۵۶
موسسههای
دروازهها
خروجیهای
فورچون
زبده
محتاط
۷۹۵
چاینا
قناتها
ویسنته
پارسها
اقلیتها
پراکسی
کیسهداران
ابتکارات
نابرابر
مجتهدی
میچرخ
اطلاعیهای
##ucky
میگرید
یوبیسافت
دیباچه
##وبلاست
شگرفی
شوپن
متغیری
##uerto
رادیکالهای
تاناکا
بهزودی
لامبدا
bill
nl
word
بشک
بلیس
جوهری
حیا
خزل
دتر
ربا
زگیل
سدها
شوسه
طومار
ظالم
عنان
قنو
قریشی
هریت
چتری
##نمی
##aff
##pend
##bar
##قدم
##98
##وراند
بریس
الار
محارم
کاروت
سیفی
بخشداری
مقرب
نظایر
دانشوران
##ورتا
اعتن
بازان
زیویه
تلقین
ورث
غیرار
پیرسون
سیستمز
اسلامیه
نگرو
اموزگاری
هدایایی
نوردی
مغرور
غربت
کاربرانی
##فایده
رکعت
##سپت
سلسلهای
کوشیدند
دستگیرشده
۷۵۱
۶۶۹
۶۸۷
۷۶۵
سوپرانو
##محمود
۸۳۸
قصبهای
سازندهای
رولند
لورل
sco
پیاف
يیامدی
هاینتس
نوترونی
ابرقدرت
تبرستان
ذاتال
میکوشید
سوسکچههای
متکلم
خروشچف
ترومبوز
چرنوبیل
ذبیحالله
لاگرانژ
تربیچ
رفراندوم
درساژ
bon
um
بندان
تکس
تالب
غوریان
هارک
وستر
##کزی
##مرکز
##باقی
##جریب
##nt
##اردها
کهور
منهای
فراب
موگ
ایایکس
نمیافت
پرسه
##اخل
کلانی
منتظ
لیکو
سلجوق
##دنبورگ
بیمههای
قسط
##itor
خدشه
پایهها
دامدار
اسمال
چرایی
شعرها
ضدویروس
مناسبتر
عروض
##وسفید
شارما
۶۴۳
بدهکار
۴۹خانوار
زمینلرزههای
قرهسو
القدس
۸۸۴
سینهسرخ
۸۳۳
اویو
استنادی
سفارتخانه
شکافته
۱۲۷۹
کرکی
نیکلسون
زنجیرههای
ارگوس
حبشی
268921
برانگیختگی
قریبال
ایوبیان
زیرشاخههای
گتوند
هایلند
بمعنی
ایروینگ
268921163
cb
vas
ze
تروف
جیت
دیتون
وکس
##کلید
##oe
##61
##ظار
##یرد
یکان
املا
##فتاح
الشتر
کردو
نیوف
##لههای
بیخدا
بوب
عمامه
میبستند
پیجی
مردمنه
خانلری
کودهای
میرعم
مصايب
تعص
غیرانسانی
پنجابی
ماراد
##اسیایی
هدایا
##وفای
قدرتش
قلعهگنج
##reg
الکتروشیمیایی
##سواف
ناگاه
عملیاتها
حوقل
تریس
سیلان
نرمافزارهایی
هارالد
وارطان
درخواستها
کفپوش
پوستهای
حقیقتی
وظیفهای
اللهاباد
##erson
۵۶۴
اربعه
##اءالله
۸۹۲
خمیدگی
۷۱۲
##گوراب
scr
ژرمانی
یانوش
فقیهان
کاراگاهی
##rome
زیرساختها
قوامالدین
وزارتخانهها
میزیستهاند
گاتهام
سوانح
ایکیای
ساینت
هالوژن
یکهشتم
##رفتوامد
پارادایم
محمدرض
##وساکسون
مکاشفه
نمیشناسد
جرثقیل
software
زالتسبورگ
بورش
تومی
جزیه
فاگ
قاپ
لوش
نایج
وره
چقرم
چخوف
##گوز
##men
##jan
میدن
##یرزا
برلی
برونی
##اسنج
یاي
کرجی
##ناط
میتوانسته
پرات
میلین
پیزا
##کرویل
زیبد
اقل
دریافته
بنیتو
کندر
راهش
گلبهار
##include
جانسن
جانستون
کیوس
حقانی
پلاته
##زبانه
نورس
ماوه
البومش
تیزه
پلیم
انقلابهای
مالتی
هوايی
عرضهای
کشتارهای
نرسد
##tto
theory
بابلیان
##اسرود
ایمون
خوانندههای
تراویس
تازهترین
##زموند
امیدیه
ملکالشع
میکروبها
۷۵۴
اکسیدهای
۸۵۵
۷۴۲
۷۳۵
کارتها
۷۸۷
بیهوازی
۷۱۱
استحصال
عزرا
1990
زاير
پارتو
حبابهای
کیانوش
جلیقه
پرانرژی
زیورالات
champion
ادراکی
اسوشیتد
dia
kam
media
sap
بزد
ثواب
فاست
فاسی
لولی
لوقا
پینه
ژرار
##اذ
##گما
##پاک
##هـ
##طیه
تاکا
سرین
۲۰۳۰
دارچین
پیشد
انگشتر
مردوک
##ینیوس
دولاب
نیرومندی
ملارد
مخاص
پیرنه
گرفتهبود
انگلوساکسون
جوانشیر
دامداران
##علیشاه
رومات
گیاهخواری
سويیت
مونوکسید
##opter
حسابداران
زیباتر
زدودن
##ental
۹۰۸
قابلیتها
##ساندن
گزارههای
دبستانی
پرچمی
۵۹۲
اتهاماتی
۷۷۵
حمامهای
۱۲۸۲
میخوردند
شادمان
نشریاتی
نورثهمپتون
لوسیوس
زیگفرید
حجتالاسلام
ماکروفاژ
##پرواز
econom
##جلدی
نعمتاللهی
انفلوانزای
رقیبی
cities
گوادال
human
میدرخش
وستهام
carolina
چنداهنگه
قریبالوقوع
67
fly
other
saf
von
رگی
رندر
رولین
قاطر
کومی
##وظ
##واتر
##چوک
##جس
##خوی
##خمی
درنا
##ودای
##ونیر
##هاچی
##یتان
اوتیسم
منور
خودب
##الیها
مروری
استفنی
پرگ
میلون
##افشان
انگوران
بازنگ
بازشدن
عباراتی
نسک
بالین
تبعات
جزای
##اگونال
سینگر
##انسک
عبدالر
سردتر
سردسته
اکتسابی
##گنبد
سکسی
داچ
جروم
توزیعی
فریدا
اسیبدید
قالبگیری
بریان
صفراوی
پرچمدار
بهارلو
العمل
۶۳۱
۵۹۹
۶۶۶
۷۲۶
برگشتپذیر
۹۱۲
see
۱۲۷۴
صومای
کارگاهها
george
سرهنگی
پوتس
تناسخ
موازین
peop
دشواریهای
لطیفی
میپنداشت
hills
فاحشه
محاوره
متزلزل
ازاینرو
سزاوار
صمصام
اریتمی
سرشناسترین
مکماهون
ابوجعفر
96
house
tan
بـ
تیتی
جولان
رنی
ساج
لوتری
پیتا
چچ
کربی
##سههای
##tor
##ایور
بهاییان
بهحساب
##الون
##الایی
##الطبیعه
میوزد
برکی
بروید
##سیگ
دیونی
کشیشان
نوسانی
اشکان
اهریم
دورههایی
##شمیت
##اپولیس
جهنده
##مداران
گرفتاری
##ویسان
##ايله
تعین
فارگو
اورمزد
۱۰۸۰
قلمه
هزارجریب
کوچنشین
رودس
سریعی
بهطورکلی
دیدیم
صفین
داستانهایش
##ature
الیسا
پلیکان
الکترولیتی
##ریزاسیون
اپت
اپیت
کاتلین
متفاوتند
کوماموتو
گذرگاههای
۳۲۰۰
رکوردی
۷۰۶
دودمانی
گنجهای
۴۸خانوار
قطرهای
۶۱۹
۷۲۱
بولز
سختیهای
۶۹۹
کشیدگی
رستماباد
هرکسی
برهانی
منیژه
سوراخکاری
دوبرو
ویتامینها
نمیدادند
کمبریجشر
حلالیت
بریتانیکا
میترسید
مییافتند
رخدادها
اندوخته
نافذ
الترنتیو
غنایم
ورزیده
##ground
میایستد
چندرسانهای
ناباروری
نابالغ
فایرفاکس
rc
sab
حران
دفت
زاری
ساتو
سلاحی
صعب
قیه
پمب
گید
گیش
##ژنه
##جاه
##ao
##uel
درفت
##الوی
##یمون
روگن
موزایی
##فرج
##ادیو
دیف
ویکرز
##گیه
##ونیستها
مجرب
اشپی
پایور
ملیگرا
بدبینی
##پرز
##اووو
##اوغلو
گلاستر
##ایلد
اسپند
##یریس
کیث
سینث
هندوان
ماضی
##خیلی
تیروزین
##پلاس
##پلینگ
پاچه
درامدن
متعامد
اصطخری
لرزهای
هارلم
عشقاباد
پیشرفتها
پدیدم
گذشتند
نهادهاست
مارتنز
ناصرخسرو
سرویسها
مرغهای
مخالفتها
تجزیهکننده
شانسی
خسرواباد
۸۸۶
۶۷۴
وانادزور
کاروانهای
ممتد
مرورگرهای
اونس
ابداعات
رفعت
بارتل
کنستانتینوپل
فشردگی
ذوالقرنین
سکانسهای
ساپورو
جودیت
پیشنهادها
ادریاتیک
william
entertain
لوایح
جومونگ
یونیکد
شاندرمن
مردمنهاد
eg
lr
pn
ثقل
راما
رنات
قاورد
نکت
پوین
یدید
##سوری
##نزی
##قامت
کهک
##یرشن
برویم
انباری
##یلوس
##یلدا
##ومهای
##ازاری
ویول
سیاساس
دستن
##اکسید
##اپیش
اتنی
بینظمی
افست
اجیل
ملیگرای
هنکاک
میرعلی
نخی
لیلیان
گلای
##ستراد
دلبر
اسپایدر
ماروین
مارگار
مکبث
دیدبانی
تهید
نوردیک
گیگاهرتز
##پهلو
شکستناپذیر
تاثیراتی
##خواندگی
بازگا
مشهورند
کاتس
پاچینو
رمانش
پیچهای
جعبهای
گشتاسب
اکسان
۸۰۱
گلیکوپ
۶۸۸
##کوسه
۹۷۶
۸۷۳
برگشتند
##ious
اگاهیهای
اگوستا
حفرهای
کیتو
سوءت
ریواس
نادیا
۱۲۷۸
پاشیدن
150
جنایتکاران
اهرام
##طلبانه
norf
برمودا
میاندشت
##یوویتسه
ارغوان
فرمتهای
الامام
زرندیه
هراکلس
بیباک
##الامپور
پاکیزه
نباتات
فاوست
انضباطی
شابک
##ography
هنرپیشگان
بازماندههای
دستنشانده
صراحتا
ارمنینشین
مارادونا
بفرد
جرب
زرو
زلین
طفل
ظال
##بارک
##ثوم
##الیته
باسی
##یرس
##ریحی
##فتون
فرخان
توچی
اسنیک
بیولوژی
دستشویی
مشکان
##نینی
کمب
اتنیها
اندزیت
چندنفره
۱۲۴۰
سومریان
تکالیف
##زبن
##وکارد
ابرش
گزارهای
##ref
##ندرت
سانجی
گنوم
دوستت
سربازانی
فولام
ایستگاهها
##ots
محبوبه
بایک
نگاهداری
کارلتون
نایروبی
بیاط
اسمانها
۷۴۶
۷۲۲
تغذیهای
۸۹۹
ژنرالهای
بزغ
انسانشناس
ستارگانی
۸۱۵
##کونام
چارچوبهای
##سامانی
۱۷۷۰
اندازد
باتریها
ماگدال
تورنومنت
مگسهای
ایپد
text
موزیسین
business
شبهنظامیان
اوترخت
امپرسیونیسم
قابلتوجهی
فصیح
institute
ban
ig
ker
kan
بانت
تینگ
جیره
حلاج
ذیر
هامل
##کاه
##مثل
##خین
##ارنی
دراو
##اردز
تازیان
##انهی
شمعون
##اپل
ادسا
##رفهای
میرویم
دادهشد
سنکرون
گلوی
تعریق
۱۲۳۰
##امبرلند
نهار
مارگریت
پارسونز
شیرزاد
رایزن
رایدهنده
##زاوا
الیه
ساگان
مورنو
وسلی
خانوارهای
دینهای
مطلقا
سلولهایی
اینترفرون
۶۰۷
فناوریها
ماریانا
رمض
تارو
organ
اخترشناسان
۶۴۶
۷۵۵
زراباد
۵۸۱
۶۲۱
عامری
۷۴۸
جلبکها
اگاتا
مخلوقات
##oud
لورنتس
کماندار
مباحثات
شعارهایی
رساندهاند
ویشنو
بوگوتا
فلامنکو
ژيوفیزیک
پطرس
خوشمزه
مخدوش
دهکدهای
number
اتوماتای
گرینوود
شادروان
bos
pac
بکی
بچگی
جریب
خاجی
ظلال
غایت
لوط
نویی
نکونام
پانس
کولو
گدان
##گستر
##شوو
##چینگ
##انل
##الوم
ازه
##یدار
##ازدید
اوغلی
اسماء
ارنت
##برام
##لازی
بیسر
بیفایده
ابست
دورة
##اخه
تیمارستان
سوسیس
##پیجی
امارها
##lav
نشانواره
سریز
##وکالی
سیداباد
کوتا
کاتا
رمانها
ارامگاهی
##رسول
امپراتوریهای
چارچوبی
گشتاپو
وظایفی
مقالهها
قویونلو
اژهای
پریسا
کوبیدن
خلافکار
پاتوژن
۸۵۱
۶۸۶
۶۸۱
۸۶۴
۶۹۲
۷۹۹
طیفهای
کاواک
used
صندلیها
برچسبهای
شعلههای
لازار
پروتونها
بورکینافاسو
چاوشی
پلاتینیوم
پروپیلن
گیجگاهی
پلاسمایی
two
تنگاتنگ
کوالالامپور
اپالاش
الوهیت
##پورتیوو
اعتنایی
pala
qs
song
خفی
شمی
لامبر
گاوران
##ball
##امس
راسال
فرجی
البان
السد
موالی
اسراف
اسکوپ
سرچشم
دوشان
##نیکو
اشاراتی
فیلمنامهای
کمره
پرنفوذ
اقوال
بلوند
خطاطی
حکایات
جهانبخش
واگذ
دلیری
سنگهایی
تکهای
ولاد
گسترهای
الکترا
شرقیترین
سیمونز
شعرهایی
الگوب
قاجاریان
یهودیها
بیتس
کروک
فلزهای
برمیخور
ریزپردازنده
۹۶۵
۸۷۴
نیترید
##ونوکل
پیشرفتهتر
هولدن
وامید
بلاغت
##news
کوچهها
سپهدار
پیگیریهای
جولیوس
مزدوران
سیلیکا
کافيین
درمیامد
ادرن
فرورفته
اسپینوزا
مایرز
انتونوف
ماینتس
شلوغی
شاندیز
التیام
visual
فیاض
سنگنگاره
دزدیدن
سیندرلا
اهریمنی
norfolk
01
eas
fam
gun
hay
ios
mes
pack
sir
tag
x86
جيو
حیران
سارات
فورو
ویتی
چستین
##کوا
##لاب
##sg
##mon
دردی
درشهر
بریا
##گرامی
نامحلول
دهدهی
فیلها
مرس
پراید
##ایدار
گروهای
احقاق
##شکوف
هوشمندی
شکلها
مینشینند
سیناترا
قدسی
تکریم
##رسید
##دریا
##ities
حلالهای
##اسماعیل
کنترلر
ورزشها
##ils
میدانید
جرگلان
۶۰۶
سیلین
۸۰۸
۸۰۳
پانلهای
##سیلون
چپگرای
النبی
نیکوتین
نمایشنامهنویسی
۸۸۲
۷۲۴
۷۹۱
۸۲۳
افتادهاند
۱۲۷۳
مبارزاتی
خطرناکترین
همتایان
قشلاقی
دوریس
پرسشنامه
##tax
لوحهای
رسانیده
شالکه
گشودند
ماجراجوی
نجیبزادگان
منعکسکننده
hyper
تندرستی
پریشانی
زامبیها
##ences
استافیلو
تويیتر
اناستازیا
مخملباف
شراکت
ارتجاعی
تصنیفهای
association
حلزونی
زبردست
بگذراند
عبدالصمد
bac
dsm
eth
hcl
ky
بنینگ
دگرد
رانت
ساگا
فندر
پوارو
##نویی
##گانشان
##زاک
##ـی
##خوران
##ар
##الق
میوهای
برست
برشهای
روک
اوتی
الارض
مسر
کارتا
ارغیان
کشانده
##وسط
فیلمز
ادانا
کلسی
##موزی
بالن
شاهانه
هووخ
ملتی
یافتهای
غیرمن
واگ
فیوری
پلنگی
نگاتیو
سویل
کریتوس
مبنایی
سیاهچال
شرقشناسی
اقدامهای
پاهایش
حملاتی
گوریل
بدینترتیب
پواسون
تراشی
عناوینی
۹۰۵
لینکهای
شبهه
راسخ
پتروناس
بالغین
۶۸۹
اگام
۷۸۵
بوتهای
۸۹۵
عطایی
۱۲۶۴
##pha
1398
series
رزمنده
والدینی
ذیقعده
سيونگ
تاووش
میدادهاست
هاجر
گواور
انژیوتانس
درانجا
باگرات
رزونانس
ماکیاولی
معتمدی
jac
mh
rub
اویا
سمیه
نارک
ناله
گزند
##چکی
##cin
##66
ازو
میاف
##ادس
##ابید
##ترامی
موتا
شهربراز
##تیش
متص
دوسر
##لاوا
سیای
سیگاری
مداح
##لسکی
ساختهشد
۱۰۵۰
۲۵۰۰۰
مایاها
تیو
چیانگ
نمیب
سدهها
کورتیز
اشتون
خوشگذ
تکنو
وقتها
پادشاهیهای
کومله
جذبه
تراوش
همچنانکه
چهرهها
روندهای
گامبیا
۶۶۳
نعناع
فراخورشیدی
120
۸۱۷
فرسودگی
رگههای
چسبناک
meg
اپرایی
شرفالدین
اشراقی
اگهیهای
تایتان
تسوونتری
اسپانیولی
گانگستر
هیبرید
تریبون
معاصران
##کفلان
luc
خامی
داج
طغ
لنج
وهر
ژوهان
کیدی
##cus
##bu
##ارام
بهتن
باوی
برسر
##ردشت
راپس
##استریت
##یمو
منوی
فریرا
میشان
تاچ
نیاید
سرایش
کارگزاری
##یشنهای
مجزای
مشاع
مشیری
پراهمیت
بینا
افشانی
سوژ
گردانهای
هوستون
میانسال
گلولهای
شورید
محمدجعفر
اورینت
جامپ
##گوي
نشانها
##ینهها
دلهر
##arm
هندواری
دریابیگی
##وفور
گستردهاست
صدقی
نیمپرده
پنبهای
cour
سرعته
پاکدام
ایمانی
ضدیت
شهرداریهای
##ives
۷۰۸
لایبن
##عبدالله
۶۴۹
تکنولوژیکی
پیترز
۷۴۴
۷۴۹
۸۷۶
۸۲۶
کمالالملک
کاردان
شکنجههای
ترکمنهای
beach
کنشگران
ناصریه
عاجز
پیچیدهاست
شبانهروز
مصطفوی
ابوهوایی
کبریت
فارماک
سایلنت
خاتمالان
63
bc
gall
james
lor
pier
wom
دکر
رضای
شتی
عجله
لنا
لارک
پوب
یمانی
##رمان
##ییر
##وکه
##زهر
##فونه
##cal
##ایندی
##ایاشی
انال
##ریست
راجی
یکاهای
سالهاش
فرت
تاگور
نوول
نوحه
مدین
مداوای
بوسان
##وسل
نقدها
پیشاپیش
بازوهای
بازتولید
بدور
احی
مترجمی
گردوی
رسولی
هیده
اخری
##ایندگی
##سنر
جهتهای
دههها
اهنگران
##سايی
تفریق
دامهای
ششها
##ili
درونسوز
زیادتر
اینتراکتیو
گوشزد
بساط
گذرانید
خردسالی
##ونیکوس
نارس
ایندهوون
##یشناس
سایکد
گنجینههای
کشیدهاند
۵۱خانوار
خسروپرویز
۸۵۷
۶۶۲
فورس
۹۹۶
۷۸۳
عرفا
##فشاری
ریشی
۱۲۸۳
۷۹۴
تحریکات
۸۲۱
رولاند
##oka
بدره
جمالزاده
ساندی
کنستانس
نورثامبرلند
پختوپ
گشتهاند
جراحان
ناهمگن
بازیافتی
خسارتهای
نکروز
دبلیودبلیوای
عمارلو
اعلامیهای
بفهمد
german
قرطبه
ابوتراب
entertainment
ذیربط
det
ever
gard
oak
ترکت
خالو
زجر
زلال
سوله
عدال
فویل
وستون
چلو
##تیر
##نیر
##بغ
##گویان
##پلیه
##cel
##صطفی
میازاکی
برندی
سالرنو
متورم
مدعا
نیزار
پسرک
اشلسویگ
اهوی
اهورا
اهستگی
هرسال
اثباتی
سهپایه
بالاده
پروتو
مینارد
تکین
شیرا
ولزی
##مرگ
نمیبین
##تنویسی
##وپینگ
##ادلانه
مسیل
جدش
##urity
فارسنامه
مشابهت
##گاهای
مجددی
سرواباد
اکسو
۸۰۵
کاپری
فلورید
خطوطی
۷۵۸
۷۵۲
معلمین
جانشینش
لیستهای
اربعین
۸۸۸
۷۷۱
۷۷۲
جفتهای
کاغذکنان
۸۴۵
spe
۸۱۱
خزرها
الکامل
هواداری
monte
ریسندگی
دیدنیهای
برملا
نکاتی
دایمیو
دایمیوی
نایلون
سپیدهدم
سندرز
گزینشی
سلحشور
هولدینگ
توجهاست
انفعالات
خمپاره
تالبوت
استافیلوکوک
هووخشتره
bul
hok
have
sud
بورت
جونو
حوت
شناوری
نزار
ژوان
##گوید
##جونگ
##lı
##ran
##put
##الج
##الدهید
براندو
##لیانو
##سیای
سالین
سالمون
##اساز
اوهر
الوی
##یاو
یافا
##اشهر
##یشدن
دیالیز
سیسکو
نوذر
دستبند
اشا
##وشها
پایستگی
کلاهی
مانیت
مصعب
شیگ
##فاء
قلوه
##خواهد
سنگسر
ایرانیست
فلچر
پادکست
##isa
امریکاییهای
تفصیلی
##بلور
##وسیتها
ششگانه
گرمتر
حسنلو
##چرال
نرون
واکنشهایی
##گلوب
##action
جعبههای
باورن
پالپ
سیرو
##ague
پوریا
سرکرده
کاخک
گویشها
رمزهای
137
۷۵۹
۷۵۳
ايوموری
##جویانه
برمیانگی
neu
اکبرشاه
۶۹۳
لنکرانی
کاردار
abs
##ouri
منحنیهای
هندوایرانی
استارز
کولیها
طهماسبی
توهینامیز
الکترودهای
match
فریتز
social
رهنمون
شاندونگ
فیورنتینا
اببازسانان
راپسودی
ai
fc
lower
ple
tl
vl
بمان
بچهای
خاب
رنده
زاخ
سث
لوه
هاتس
پادر
##رر
##پرک
##ذان
##عن
##dm
##он
درمند
بهی
##ندا
میپیچ
اینههای
##ونم
رازهای
البه
موذن
ایها
سرتیپی
کارلا
معاهدات
پساز
شمسال
پرند
پرمین
تقدیس
##سانگ
اکرو
جمهوریت
##اختهاند
افرای
فلورا
نمایشگرهای
##eda
دربارهی
صدرا
بردگوری
ویرانه
کاملتر
کوروساوا
نگهدار
بورگو
##ury
اساسیترین
زندهای
مییابیم
##راحتی
##iga
سریعال
۹۰۶
کافیست
##یسیته
۵۶۶
عنصرها
##aver
بیگدلی
جفتی
دیمن
سهمگین
تیتو
لمبرت
یاسمین
حرمسرا
تصمیمگیریهای
عزیزاباد
دانشجویانی
برادفورد
پنداشت
بنزودی
1998
رزمناو
کوپرنیک
چترود
ارلینگتون
راشل
اسکریپ
بیخطر
ببریم
فروریختن
برافراشته
سرامیکها
چلیپا
armenian
مونوکلینیک
بیمعنی
مموریال
ابومنصور
چقرمگی
الگوبرداری
a1
dam
rot
term
uc
بشت
زتا
صنیع
قیل
قاین
لینا
هیدن
چشر
گاف
##رقی
##رمن
##کمی
##شوش
بهطول
##الاس
انبه
انکس
ایاماس
دیبی
##میوه
##وشک
##کهام
زیررده
انگاری
وجودش
ارتاشات
مانویان
##کوتی
زمینشناس
تمپ
قبچاق
کلیمیان
واچ
وافر
کانتو
توجهات
##نوبر
اجراست
تشنگی
مقامها
سیاهپوش
خوشبین
ایمپ
درواز
کمپوست
خشاب
۸۰۶
صداهایی
محدودههای
۶۱۱
ملاقاتی
۶۷۶
۹۹۸
درحقیقت
##جنسی
##oke
قالیچه
بازاریان
##چنار
##وکاوا
لوکیشن
1396
کاراکترها
کریستیانو
الپاین
غواصان
verb
##وویگو
توفند
ساترلند
محوطهای
فحشا
year
پروداکشن
تراجن
گالوانیزه
ماخوذه
معنادار
علیالخصوص
b3
جندی
حمیده
وندر
کسین
##ساس
##lor
##rent
##town
##don
باث
##ریها
اوور
النج
سیود
ابچ
مرن
انتال
##درخت
اعقاب
جنبی
شرارت
##وايی
بالان
ریکا
بلاست
تعدی
شباب
کلیش
واگیر
اسلحههای
جوک
البیر
##وفسفات
سیدلی
الیویه
فصلها
پرداختهای
چیک
مسلک
##وپولو
سرداب
مالر
دامنهای
وضعی
دستهها
روانگردان
جستار
بحثهایی
بشرویه
بایستد
##الحق
بیلبايو
کولن
تکنیکهایی
وستروالد
##iction
شاخصههای
کسایی
۷۲۳
بولینگ
مخاطرات
۸۶۲
۷۸۱
۸۷۹
۶۹۶
نازیسم
۷۹۶
۸۲۲
کمربندهای
چمنی
تودهها
فرسنگی
میخواستم
فانک
نوبنیاد
پرکینز
۱۲۶۸
کیرش
ارایهای
educ
محافظتی
##eek
هورمونها
یوشین
round
گلههای
قوسهای
ماگما
ملودیهای
گروگانها
found
peter
امپریال
##عوض
انارشیست
##osaurus
لنفوسیت
نمیتوانید
کامبرین
کامبرلند
اچتیامال
computer
پورتسموث
میرعماد
ظلالسلطان
پختوپز
69
fire
pg
بچر
ثامن
دبورا
سفته
سدر
لیره
پوندی
پاولی
کسم
##روان
##مصرف
##يي
##light
[...]
